/**
  ******************************************************************************
  * @file    beluga_data_params.c
  * @author  AST Embedded Analytics Research Platform
  * @date    Sun May  5 21:48:36 2024
  * @brief   AI Tool Automatic Code Generator for Embedded NN computing
  ******************************************************************************
  * Copyright (c) 2024 STMicroelectronics.
  * All rights reserved.
  *
  * This software is licensed under terms that can be found in the LICENSE file
  * in the root directory of this software component.
  * If no LICENSE file comes with this software, it is provided AS-IS.
  ******************************************************************************
  */

#include "beluga_data_params.h"


/**  Activations Section  ****************************************************/
ai_handle g_beluga_activations_table[1 + 2] = {
  AI_HANDLE_PTR(AI_MAGIC_MARKER),
  AI_HANDLE_PTR(NULL),
  AI_HANDLE_PTR(AI_MAGIC_MARKER),
};




/**  Weights Section  ********************************************************/
AI_ALIGNED(32)
const ai_u64 s_beluga_weights_array_u64[27416] = {
  0x1326ae0e4fb7044dU, 0x5982097f9a0a65d2U, 0xb0fd5dca053cab04U, 0x819cdec5c8c4f74dU,
  0x6fe1101e3c9c1d4U, 0xc1211010a050618U, 0x8c890b0a110e1a18U, 0x8da2a8a3818e8981U,
  0xa4aaa5838f8c8490U, 0xb4ae919e99929e9bU, 0xacU, 0x0U,
  0x0U, 0xec06faf400000000U, 0x25423403fff5fdefU, 0x4001f40352b7f60U,
  0xe0305fa01f5f903U, 0xf6452209212af806U, 0xe781faccaf05edd9U, 0x311ffb3d020b23ccU,
  0x1ca73c02bb3f20daU, 0x8162f2977222cc0fU, 0x50eba7662fbb121bU, 0x23c80e1097U,
  0x0U, 0x0U, 0x0U, 0xa8b00000aa51U,
  0xc0000000001b745aU, 0x15e0000b863U, 0xc000000000009919U, 0x81ffcdaf130706efU,
  0x16128124fd18fef9U, 0x8695918195830fd2U, 0x7e7b577f6d8f9b94U, 0x2204fa07495d6e69U,
  0x90cf8001afd1581U, 0xbf20907fa08fa7fU, 0xc681ae328fdc2305U, 0xfb1e0e92909d8a81U,
  0x3c490000b1afU, 0xfffffd1000000e3dU, 0x633bc000034c9U, 0xffffff6c000120e6U,
  0x81fffe000003ebU, 0x7ffffe000005caU, 0xfaff030000ff7fU, 0x0U,
  0x0U, 0xfbf98600007f07U, 0x5f87b000081ffU, 0x4faf5000081fcU,
  0xffab7f00004005U, 0x7f04fc00000516U, 0x3fe0000000281U, 0x81fbfe00000249U,
  0xfe039700007f07U, 0x0U, 0xfdfc8100000affU, 0x8007f0000c705U,
  0xffffde2400005587U, 0xc0000000ffffbe1aU, 0x5d9fc0000000U, 0x71d1000030d6U,
  0xfffff0810000089cU, 0x3181000054e2U, 0xc0000000000047bfU, 0xf9500006834U,
  0xbf3fd1667d2dd1bU, 0xc3f44f0210c20f36U, 0x170914817f73817fU, 0x81e6382d81367f5dU,
  0xfefedb996b7fe3f2U, 0xe60136f7c37f793aU, 0x31f5f53fb4e1fd09U, 0x33da56fec405d14cU,
  0x6ceb24834d18f524U, 0x4e9c5f7fbf140f7fU, 0x2214819075ff0702U, 0x1ad97302bf34df4fU,
  0xc37f0102ad1425e1U, 0xc33330d31121d1eU, 0x81a409cdf3d729c1U, 0x1d7f7f2c6cdcc42eU,
  0xe5efdbdb42c5fde4U, 0xfe2660ff27abee27U, 0x439600004e22U, 0xffffff62fffffca2U,
  0xac0a000001d8U, 0x3a5800000a3dU, 0xffffafa30000169fU, 0x11824ffffffbaU,
  0x4c5fffff72bU, 0x2a7f00002c2cU, 0x3fe0000d6c0baU, 0xff00fb367f2dfeU,
  0x0U, 0x0U, 0xff0316010000fd08U, 0xcfe017f09fffdfbU,
  0x103fd0000810f51U, 0xfe0004ab420bfdU, 0x76f902fe0001fcf8U, 0x7f05feeffefefff7U,
  0x987a91000005f6f3U, 0x62f10081f9fefdddU, 0xff047fff00fefbfbU, 0xf803ffdaf905f40cU,
  0xfffd0702007f4ee2U, 0x7fc0202d49307fdU, 0xfd02000100644effU, 0x6ff0101f4c88103U,
  0xdbf681fe00ff0e16U, 0xcddfe270e0e0ae8U, 0x70481000002040dU, 0xf2000033fc010707U,
  0xff04810100ff0300U, 0xff012504040b03U, 0xff81feff000102fdU, 0x3ffffffff0000ffU,
  0x33eed0000005fafeU, 0xfd1fff7f01fa00f3U, 0x0U, 0x0U,
  0x72f8ff010004fc0dU, 0xdb81010d03fdfcfdU, 0xdf22f1020003f7feU, 0x7fd202e504fa080fU,
  0x601aa0200051f09U, 0x6fe017ff60b1535U, 0x0U, 0x0U,
  0xfdf27ffe00010003U, 0xfffdfe640001fe03U, 0xdf74dfe00fef5f0U, 0xfe0cfe81fb01f205U,
  0x576f67ff0001e917U, 0xc83aff7f03f5fdfeU, 0x66f80a00000008feU, 0x7f1d00f6fdfefffdU,
  0x781ea020001f904U, 0x10801ed03ff0001U, 0x408fd0000f719eaU, 0xeff600e5fd15fb7fU,
  0x750c300300fb090eU, 0xcd81034710080320U, 0xfff7fa0000fd00f5U, 0xee020081fcfffbfaU,
  0xfdff0000dcef1eU, 0x1fd0001d27f2003U, 0x1fafb010045b90eU, 0x2fe0002cb8148faU,
  0x5fd050000ca197fU, 0xfc0300f5e22cb803U, 0xff05fa000026db11U, 0x101000219d57ffaU,
  0x7f01fcff0000fdfcU, 0x23e8fffc01000201U, 0xc00000400000863fU, 0x301a00000531U,
  0x9678ffff9d41U, 0x327d0000de50U, 0x908200006aeaU, 0x7c2a0000798bU,
  0x7200002c4dU, 0xbbec0000040U, 0x3526000038f2U, 0xffffa4b5c0000000U,
  0xffff5f2c0000963eU, 0x312fffffa603U, 0xffffd3f8000030fbU, 0x1df90000a1aaU,
  0x67e800005c15U, 0xfffff49dffffec98U, 0xf9061d8166fc19ebU, 0x43da337f6c465b03U,
  0xf6e81fd14f0c4f6U, 0x217feae3c90109f3U, 0xc50bcd19d30030daU, 0x7fa8ecf40cf9d17fU,
  0xf11cef17069a2411U, 0xb9fff40ce79f7ff7U, 0xcd173bd6377ff4e7U, 0xf12adf127fe6dfd7U,
  0xecf6ec9dfc3b7fddU, 0xf6a375037181fa00U, 0x7e81f915ef01f907U, 0x198100fc0ff502U,
  0x37f180209ff1105U, 0xfb0907ee00f886edU, 0xb133d200d7f6430U, 0x4fb0af781e808b7U,
  0x220d0181eafb1d04U, 0xf5d67f27fafbed07U, 0xf8287fe20f27fff4U, 0x81df126a0fe908fcU,
  0xe9037f13060b0ce8U, 0xda7fd606ed03f69aU, 0x6fe0ae00520a218U, 0xeffa0df9027f0ffeU,
  0x150f0419270a81c6U, 0x15031881f50c0211U, 0xfdf43deb26813603U, 0x7f8ff416e802fb0cU,
  0xc28104003e09f403U, 0x7f10e6c428ebd12bU, 0xf80efbf9e903df23U, 0xbe07fff10f368149U,
  0x27b088129a8129U, 0x2f805ff81f601f8U, 0xffffff9ffffffef3U, 0x3b000007d3U,
  0x6f87000086e5U, 0x17380000137fU, 0x17f8000001a6U, 0x5e000000d1bU,
  0x900000051a9U, 0x6441ffffff35U, 0xd1f00003c16U, 0x2a21ffffffb3U,
  0x15fa00000623U, 0x30d5ffffdceeU, 0x4368000056a7U, 0x9508000007faU,
  0x141fffffa8bU, 0x44ba00002db2U, 0xf37faa1efe5f001eU, 0xf90062435cf64709U,
  0x7184cad370022dcU, 0x2fa22160fb7c607U, 0xfe0a00fa14050006U, 0x150003000104fc04U,
  0xff04f7f200890eU, 0xf9e80de605000781U, 0x5fdf87cfb020002U, 0x900f907fef605fbU,
  0x5010cfd1e0002f0U, 0xe90201f903087f02U, 0xf7fd16d910f600f7U, 0x500c1e30025dbf6U,
  0xb81fc3113007214U, 0xc42cfa1209f12645U, 0x2910a290acd00eeU, 0x5007fd7b5e80701U,
  0x3ed24a0fb00d99cU, 0x304ea00f74cc62aU, 0xb94020efe7f00fcU, 0xfd00f9e5c8f0f905U,
  0x21080d040f00e4efU, 0xfe05f1fefdf423U, 0x3ddb24301d90003U, 0xf000df7ffcfff802U,
  0xdef43ee43d00ec1eU, 0xc90bfef4f9d490efU, 0xf6f6010103ff0004U, 0x60002fbff040003U,
  0x5010602f6007f03U, 0xfdf704fd0702fbf5U, 0xe744ef04fb2000feU, 0xa00d209157f9702U,
  0xf2050764fe003f38U, 0x7faf90301ed030cU, 0x57bfcf7fdec00feU, 0xfe00fe4b3a100603U,
  0xe9f3d1fde80015f9U, 0x205fef7047ffd0bU, 0xee5304ff0c2f00f7U, 0x1d000a0824fef907U,
  0xf6fcfe041c00d2ffU, 0xf8121bd201c80581U, 0x27ff0f2fe4a00fbU, 0xf600e5263e31fd02U,
  0xf8f603fb0f001df1U, 0xfdfc05fef3cc04faU, 0xea0b0af40b1000f0U, 0xb00005fb0202ea07U,
  0xff7ff3060000470fU, 0x6fefec21f7f61387U, 0xf9fefefd00fb007dU, 0x20002ff0101ff05U,
  0xffff02ff0b00fe03U, 0xff007f030bff0500U, 0xf6f615d217fb00e3U, 0x260095f1fa43bff1U,
  0x3811c5416006611U, 0xc331e11108f02c17U, 0x3d02fd0106000012U, 0xfb00060002fd0600U,
  0x1fd00000100f0fdU, 0xff19064881fc0014U, 0xfa0903fb0f0100faU, 0xf60081fe01649dfeU,
  0xef0b0f5b1500e612U, 0x210df5030700063cU, 0xde0601ff08fd00f7U, 0x200fe0000000306U,
  0xfffc02010100ecffU, 0xfb1c03e48100fd08U, 0x4eb40c0f2e00ecU, 0x1700790d35e95ffbU,
  0x13d2de95f200e481U, 0xdf09e6f2f6c8e729U, 0x8106ff01fc000001U, 0xfa000100ff0001d9U,
  0xfd0701010100f108U, 0x50f0930b3000206U, 0xfe1f27fe010e00faU, 0x1a0012fc148111fdU,
  0xf9f66a1efe0017dbU, 0x705f9000123f81bU, 0x13f2fe02fbe70003U, 0x30002fb00fde9ffU,
  0xbfe0105f70081fcU, 0xfcfd0a070d0703e3U, 0xfa07190afefc0013U, 0x110007fdfd07dcfdU,
  0x59f33df9810005fdU, 0xea0210090304e0fcU, 0x508e404030100fbU, 0x400fcb5fc234006U,
  0x81eba002ef00f409U, 0xfff903fffbec04f0U, 0xd28fc00000e00f8U, 0xa0009020fffea01U,
  0xd06fd01080081ffU, 0x60bec01e105b5U, 0x1061601090d00faU, 0x10009e06fe007f00U,
  0x11ff13db2900a959U, 0xcf01fdf10406f7e7U, 0x1030202ff0100ffU, 0x9400fd020204fefcU,
  0xfb7ffb011300fc1dU, 0x7408030104fc0f04U, 0xfef6969df7fe00ffU, 0x2000dd71ecae3c03U,
  0xb7dc0c1bbf00e618U, 0x1510ee0cf1f87f09U, 0x205060901ea00faU, 0xf900efd50f8117fcU,
  0xfc00d9fa2000fb0cU, 0xdcfefffbfcfaedfbU, 0xde10ff0a0b01001bU, 0xbd0008fffdfefd03U,
  0x4630502fd006a35U, 0x519d0b150efb1b81U, 0xb711ff0181fe0006U, 0xfefffeff06c1U,
  0x202fefefb00f2fdU, 0x1e0418e3fd0005U, 0xa05fe00b30100f3U, 0xfa0006fafcfbf51eU,
  0xc0700ef00070bU, 0xebaf67f570403e8U, 0x8959000073c9U, 0x98c5ffff5d71U,
  0x1efb0000918dU, 0xffffebb700003574U, 0xffff5c48ffff6a62U, 0xffff8591000148aaU,
  0xffffe6720000812aU, 0x5ba200016601U, 0x8a5effffbf55U, 0x5faefffffa04U,
  0xcbf2ffffab7dU, 0x61700000a157U, 0xffffd9fd00009dc3U, 0x5927000055e1U,
  0x3f30100004c77U, 0xfffff1450000280fU, 0x39c72c31c03439c1U, 0x30134cb23cf550cfU,
  0xc93fb242083c14f3U, 0x58294e2d264b32bfU, 0x52b5625d8c564faeU, 0x5b1d7199645662aeU,
  0xb4563c5112527b08U, 0x173d7f544a635d4eU, 0x21e23238c32a26e1U, 0x29062ed63bba20d8U,
  0xe51c0f1f2d244ffcU, 0xd9203b3029333000U, 0x5db43a54574a54aeU, 0x5cae54a660f56ba2U,
  0xa766815d60571c35U, 0x7f66b952585e468dU, 0x7f817f7f7f7f7f81U, 0x7f8a7f817f7f7f81U,
  0x817f707f7f7f7f55U, 0x5f7f9f7f7f7f7f7fU, 0x35bd41443e3d42c1U, 0x34c631d04b902ac8U,
  0xd12b04344e41502cU, 0x93ecc3e384144f0U, 0x2ee4182dfd1b26e7U, 0x3a4d10f02f052bdeU,
  0xd62fcc2668210655U, 0x3b51f8293c231ac8U, 0x35bd3439fa333ec1U, 0x3c7f1be4363834ddU,
  0xc134333c783b247fU, 0x485dfe37472b2d2fU, 0x11d31a15051822ddU, 0x133709fb17cd10f4U,
  0xe90f0c1b2a210f33U, 0x2d2cfc15161a1b00U, 0x30cb00024df1U, 0xffffeeee00005578U,
  0xdca00000fedU, 0xffffeb0e0000b761U, 0xfffff7dd00014f4aU, 0x1bb300008d28U,
  0x286600011b8dU, 0xfffff3deffffe351U, 0x1f5a00027b43U, 0xffffbc8b000013faU,
  0x3793ffffff5dU, 0xebefffffc559U, 0x95afffffbf7U, 0xfffffb80fffe529bU,
  0xfffffaba000001feU, 0x191fffff924U, 0x3ad5233508174a29U, 0x4f10d811ef916e8U,
  0xb060f127010d0e13U, 0x27f85732330c0c0cU, 0xdf010c16f90013f4U, 0x280608fbf903050fU,
  0x3fffa0f810f1bebU, 0x11f9070705fdfd01U, 0xee58ac4d0807fb93U, 0x6d18ecc23c8a0U,
  0x44ff168105e1ec0cU, 0xe6f7154c2d6e2ce5U, 0xd108080ed6fdf2f1U, 0xecf5f329d7130cf3U,
  0x5fb0d0a2634ecb0U, 0xf0e97f0102cbeaf0U, 0xac5129afd0816fbU, 0x8faf60c7f1205dbU,
  0xecf4f52000a6fc34U, 0xf7f917d6cd06dd01U, 0x37e91708050f7f15U, 0xfe0507ab09f2180bU,
  0xd63cf60c06fb0a03U, 0x3f703090c0f0817U, 0x73281dd0af828a8U, 0xdba17853995d8U,
  0x3cc844bf061df109U, 0xec05fde1e94b18a3U, 0xf9d7eefb5cebfe07U, 0x565001cd409e3bcU,
  0x12ed0a2e022208ddU, 0xff03002222157fefU, 0xafa0303fe020408U, 0x7f00ed0107fe0500U,
  0xfefb0200050021fbU, 0xde050001ff05fb01U, 0xe000b0003fc0b08U, 0x300203e8070101f9U,
  0x5fc01fb1afe7ffeU, 0xbdebfb0004ee05ffU, 0xee93ad21fa43f413U, 0xe6fb061626419c07U,
  0xc468334f170a08feU, 0x12faf4427fc6f0b6U, 0x7ffa0c02fe07e5f5U, 0x140108f219f80bfbU,
  0xfdfaf401f10d9bfcU, 0xfd1e0301040502faU, 0x6f7e5ca1aeee6aaU, 0x1216eff38f4c0becU,
  0x847f41dcf0f20404U, 0x40401de031106a0U, 0xeeece0fd06fe0c0bU, 0xb10ff81df0addddU,
  0x10e807160325f3feU, 0x2fefff8f82f32f7U, 0x7f020501fcfff20aU, 0xb0700020cf4fef6U,
  0xf4f906080803fbU, 0xfdfffe07fe00fe0cU, 0x2a0f1b7ff7fe1c60U, 0xe6ff0202d143311bU,
  0xffedff0614c4f9e8U, 0x120f0a00fee2fccbU, 0x32f4372dff007f46U, 0xfaff46e947d930e2U,
  0xf10ce1131a34ec0aU, 0x4014fb180f191d2dU, 0xb13281ed08e8d6bbU, 0xf501cc7cc41e95f8U,
  0x5c8a2bc627f1d615U, 0xb8ebfdd7d32afeafU, 0xfb280abbfbfe04a5U, 0xfbfbda3a361126U,
  0xda1a18ad027f02c0U, 0xfb07f50c2717fed8U, 0x28fcfb19060e4114U, 0xd90b81f607f20bdbU,
  0xe505f5072219e5f5U, 0xbee8fcfbf3091a0dU, 0xf7fbf6f4fb1ff7f9U, 0x1f90681fb07fe1eU,
  0x10307f9feedf102U, 0xf7fefd00fc72f8f5U, 0x7f010a01fefddc07U, 0x2df9f60c061604e4U,
  0x5ecff0008e14feeU, 0xdefefd00070100efU, 0xe02ea25260a31ebU, 0x230b1c81ccf6e9b0U,
  0x2adb020ae8290805U, 0x6410c105d55feU, 0x812af024fcf78cf2U, 0xcde4e676280bf801U,
  0xdf5fde2eddd0f07U, 0xeafc5ffcf585e5faU, 0x23f9fff60005bd0eU, 0xf3f7f70d02fef7f3U,
  0x8f6fd0694fdd706U, 0x7f26ff01010bfb00U, 0xb2fb120d07fe7f16U, 0x4030ce109da17f4U,
  0xf11df906eef6db02U, 0xfd0bfc070bfc031aU, 0xacf7ea0708fc7fdcU, 0x6513f3ed09ecee3bU,
  0x15fa05f31d5916U, 0xb0f7ea0703fafffbU, 0x7f0301fbfdffe0f6U, 0x11fefd0209fcfe03U,
  0x4f4f9fe080af102U, 0xff08fefffe000005U, 0xe00af81d26c30a08U, 0xf33152bdb1f0181U,
  0xeb12130bf24501f7U, 0xf70206f1dcd958deU, 0x9fd02f403fd0f0cU, 0x700f3fa0e020608U,
  0x2f9f90475017f05U, 0xd4cd070606ebfffcU, 0x10f903ee01fe1bfbU, 0x7fff1e05fa00fe04U,
  0x1fd00fcf5002102U, 0x70205f8fc0bfd02U, 0xeb05f03a0101055eU, 0xe2fd010281240922U,
  0xfe0de8f314d6f500U, 0xf012fcf807180a01U, 0xf9ff16fbeffdfc81U, 0xeff4fee71c050210U,
  0xf5ebf509e0611199U, 0x5e0080a00ffe6f0U, 0xeafefdfa0003edfcU, 0xef02090202fe0300U,
  0xff0500ff2b020201U, 0x1f7f030106ff0101U, 0x4226ed35f10c36cbU, 0xf23118fe411efd0U,
  0x17080ae908f8f6e1U, 0x9f78129387e1eedU, 0xe90117a4fbf801e7U, 0xd2fefdfe7f36efadU,
  0x40e04ea2ee91d5dU, 0x5ec1004f8f10fe6U, 0xbcf19ea008111e5U, 0xafeed0cea1b0218U,
  0x26dd0c3a02e4faf8U, 0xf706ff2d3409ebe6U, 0xf806fef6fbfc19d4U, 0x2c0106f41315fffeU,
  0xfb09f8fd0f31bdfaU, 0x81e807ffffef0401U, 0x9eeffcf4000d7f0bU, 0x40804e3f01cf8fcU,
  0xfd0efe0003f8ec0bU, 0x307fe0511e60fffU, 0xe1f275f7fc04ee06U, 0xe8fdfb0d05e77f0cU,
  0x9962e6f813ed01ffU, 0xbf4fffc02e0f127U, 0x4140e7ffe0711c3U, 0xfc0003ff38fb12c7U,
  0x916f5ba05b90906U, 0x305082d28ff09feU, 0xf5f9ee731000ddU, 0x56e02fbe6f6fcf6U,
  0x2bc3fc0106f7fdf2U, 0x2fef9ec0def7f06U, 0xb3f5001c00017ff6U, 0xfdf503cae5f908f7U,
  0xf816fd07f02cb330U, 0x2fe0306001a120aU, 0x3c1e2d34ddec647fU, 0xde2e4cb4c0310f8U,
  0x4806fa0c2f39dcd9U, 0xf8eb031aef010f1eU, 0xef090a02f6fc03f5U, 0x920031414061130U,
  0xfb02fefbed10ff0aU, 0xfcf68101fc000500U, 0xe7fc0313fd00f807U, 0x3a0413ea050bfefcU,
  0xfd09010b810e1ff8U, 0xb5afff05000206fcU, 0x100f0efbe2f9f604U, 0x8ff002ffa010ae7U,
  0xfa0600f90cfafcf4U, 0xe0481f1ee0bfe03U, 0x65ae45af9ff0cacU, 0x1fbff091304f6e2U,
  0xb20088104bcfafdU, 0x6fb004d38e2ebeaU, 0x254117f510012f7fU, 0xb09f002ab091bf1U,
  0xfb1930b5fd8bfb36U, 0xff051d1619110bedU, 0x1707001708fc141cU, 0x180013faf2e70cf1U,
  0x9fe13052fe2d914U, 0x81fd01fbf7130807U, 0x16d208810203183eU, 0xfeff00fddbfbff38U,
  0xe7f5fc47f7420506U, 0x50903b5d010fd00U, 0xf0de8510fbfff70dU, 0x1506e28fa3538e81U,
  0x171154252264d6fcU, 0xecfaf524311d33a3U, 0x54036fd05effdf0U, 0x506fdf8eaf235f7U,
  0x23fdf4c1fa0304fbU, 0xfa03007f5c26050fU, 0x2fd030200020affU, 0x44f815f0020002fbU,
  0x5f50100de047ffdU, 0xe20502fd030204faU, 0x3cfbe2f8f51876eaU, 0x1c200681e310df0aU,
  0x2f70dfef7fa02feU, 0x701870c10770be7U, 0x13a87f8f1a147146U, 0xfafb06bbf2d76e35U,
  0xa018c6730932f603U, 0x170317cad246104bU, 0x28115e58ed190fdcU, 0xf0f63e265ce267d6U,
  0xba7fd5bddd963bfeU, 0x2513025e5892cc21U, 0x9b1047fdc0a121bU, 0x3eff706a8f2144bU,
  0xc60818130a06f5a6U, 0xf300fda9b30ceb05U, 0xcb397f56fcf90fddU, 0xf4021f0668d4730dU,
  0xd652d2be009a0bffU, 0x703f85b46dfeb3bU, 0x5fb03fc04f601f6U, 0x1c017f0401fe0403U,
  0x500fdfc0101ff02U, 0xfb05ffff06090202U, 0xeeff06ff02030105U, 0x7101e80503fc05ffU,
  0xfe09fdfeeefc81fcU, 0x2b1c000502fb0206U, 0x4f04fafd04fd7ff4U, 0x2800fcf7f7f1f6fcU,
  0x3f603e909ed00U, 0x213fffe01e5ff10U, 0x7ffc00f5120ab602U, 0xeb0d1812f6fbfde3U,
  0x5e5fa101ce514dfU, 0x1afdfcfa0af3ff04U, 0xf20404e91ff72109U, 0x60303321afaf91dU,
  0x4f8f8ebe6ca487fU, 0x14050ef7faeb0b0dU, 0x280d00006105U, 0x5ac600005e50U,
  0x75400000463eU, 0x54de00006231U, 0xd400000060bU, 0x660ffffff190U,
  0xa1bf00013e88U, 0xffffafd400001d97U, 0x10f2300002813U, 0xae6b00000be9U,
  0x1974000048edU, 0x53a80000499aU, 0xa57200005bfaU, 0x1e59000033daU,
  0xfffff2c800007f09U, 0xfffffcc0ffffdb27U, 0xfffff9040000df0fU, 0xd8500006339U,
  0x57e70000692eU, 0xb683ffffd371U, 0x352200001de8U, 0xffffb2180000aa91U,
  0x2fa5000046d1U, 0xe38a0000972fU, 0x2d30ffff6cb7U, 0x70dc00008c43U,
  0xffffe197ffffe491U, 0xd842000092b8U, 0x989d00005e3bU, 0x55500005ed0U,
  0x768200004355U, 0xffff9918ffffe00fU, 0xc816cb7fd113d917U, 0xf9f493e9187f0b16U,
  0x6fb07f410683f501U, 0x7ff30bb907a3d252U, 0xcdffd31eff09fdedU, 0x1b01dc0117fa1081U,
  0xf8d7fe0af5582581U, 0xf6f0ecf5f17f05f7U, 0xfbe4f6f67f0af8f1U, 0xe1f80b73f9097fe0U,
  0x1bf5a27f11923cf0U, 0xfd81cf13cc0afcf1U, 0x967ffbd72b11fc12U, 0x35f44c0401ee0ef2U,
  0x12c435ec19f01c7fU, 0xc22f1acf005f8153U, 0xd4157ffa1b81dc0bU, 0x605eff97e810c27U,
  0x131f0b812f2d2ac1U, 0xb52814e13d90de3U, 0xfd81e815f2edfcf6U, 0x81fcf8efe805fc0dU,
  0x3f619fce52bf11aU, 0xb768202dcffeb7fU, 0x151c04f50af18c7fU, 0xa30c3013fa81fd15U,
  0xee26fbe0937f433fU, 0xdfe096c1edb81fcU, 0xef2917ff5eb1f0aU, 0xa6d27f3df1cafff2U,
  0x810bfdef02131edaU, 0x14102c17fe28fe0cU, 0xdd42320df711f97fU, 0xcbb2edaf8e58140U,
  0x3ed4e908d77fe417U, 0xe7f42ba8eb7fdae8U, 0xd51b36912cd97fa8U, 0x8107fca0a4cba07U,
  0x81741c60a0d1bcaaU, 0x78a12d813b0bd90eU, 0x81f895e2eb1ef6f6U, 0xf11cf4f9ccffaac2U,
  0x1f090502f1d67fafU, 0xfdfef002fd7f09fdU, 0xfceff9f67f08f60eU, 0x1ee413409f008171U,
  0xf00081eaf1f3de00U, 0xf7f21ed95e4f005U, 0x7f1af1240404edf8U, 0x504c4f6f5fa0401U,
  0x2b7f0009e600f47fU, 0xcffbfff2e0197ce0U, 0xf60ae504fe7ffeffU, 0xfaf5fff37f050105U,
  0xf5fd197f00eb141fU, 0xf0e47f8efe37de01U, 0xec7f00f601fe04f9U, 0x811b15d31606f6f6U,
  0xf6fdfafd0bf40b21U, 0xe281f4030efe0881U, 0x7f0507ff05137a18U, 0xdffff8fcfca9edf2U,
  0xefc116e47ffe1ad0U, 0x95558a7f0bf27681U, 0xf81e1fcc91decU, 0x217f39999d30060bU,
  0x81e204c80d23aea4U, 0xe91b34eaee15ff16U, 0x5e00400d503057fU, 0x3b02fe20061b81ffU,
  0x18fce2fd157ff522U, 0xfd0f00fa81db0370U, 0xffffffc300001cd6U, 0xffffeeb80000a990U,
  0x185000099c2U, 0x2d4efffffd80U, 0x17bfffff8bcU, 0x1b80000a2b5U,
  0x459effff964fU, 0x4d000003aeU, 0xfffff3f200000779U, 0xb08e0000938bU,
  0xf00000d2aU, 0x1e5e0000360fU, 0x1dfffffff13U, 0x72a4000004b0U,
  0x2eb00000c6cU, 0xfffff611fffffd4bU, 0xfffffff80000075aU, 0x105000016d2U,
  0xfffffc4b0001d4efU, 0xfffff053ffffeabcU, 0x80200000031aU, 0xffffee19fffffda9U,
  0xffffd654ffffecaaU, 0xffffbefbffffe257U, 0x173fffffd1cU, 0x5c6ffffdaa5U,
  0xfffffd9a000062b8U, 0x92f0000027fU, 0x8ed1000008dbU, 0x72ef00006c60U,
  0x65fc00000086U, 0x11bafffff006U, 0xff900f90303f6f5U, 0xf801f602f91f7fU,
  0x2f6fef5ddfc08faU, 0x3080dfd13fef800U, 0x7f70cfe0202ef02U, 0xfe03fd02fff801ffU,
  0xf001903fdf90204U, 0xfb0e03ae2f09f70bU, 0xca1681dff900edf9U, 0xfdef09f2b1ddd11dU,
  0xdf202c205ebce14U, 0xfdeef2ca03f6adf0U, 0x4aeaecfdfd09e001U, 0x37eb06fd01ee35eaU,
  0xeef7e0f7f9dad729U, 0xf8021ff410e5fdd2U, 0x73dfe83d3f6f9deU, 0x16fa171fecfbf414U,
  0xfc14ebf5fdbad0ffU, 0xefef60d0207dd10U, 0xfef8f802f3defef3U, 0xb1902e1080012f0U,
  0xd190e06c8f1fbc7U, 0x1e01fa08fe0f7fdfU, 0xea2b001d02c8fd81U, 0xc045dffc01ef0aeeU,
  0xa01024e7fdfde814U, 0xbf2fcd7ffd2c5d3U, 0x19e6e6fc02101100U, 0xf83b07f2e702c715U,
  0xfe0ecffaf8f90ad5U, 0x9be8ea08f93c08e2U, 0xdc68ea030f06e281U, 0xfc0c4aeb0115f406U,
  0x161404c904e8ea0fU, 0x602f7d906fff6e5U, 0xc9ce618f7d702fcU, 0x25221ddf0602f2fdU,
  0xbb13eb12ea2af208U, 0xe3b53f14fd07fdecU, 0x0U, 0x0U,
  0x0U, 0x0U, 0x0U, 0x0U,
  0x0U, 0x0U, 0x8eff209f7f8ecf7U, 0x8ebf0ff09020e63U,
  0xcea0ffd0d04f2U, 0xf4d920e3ed030e00U, 0xf2f90de0f6fc7fefU, 0xfcf89803f9ea00fcU,
  0xf2ff05ff19fcf7f7U, 0xfdfb21421e05ffedU, 0xdee814c2153e120aU, 0x2857fce96e4b27bbU,
  0x2119002fd4ca4aecU, 0x32637ff0cc1665f9U, 0x881506da13ed42fcU, 0x30121b1ab6030733U,
  0x270405c320841218U, 0xfbfe05eaff05bf24U, 0xec2a04f50df8dd81U, 0xf7db0de3c6f105f4U,
  0xca24dd21fd08f626U, 0xc5f0f814fc1a2afcU, 0xae0ee07ee1df6ddU, 0xfee80419ede3110cU,
  0xfa09ecf0dafdef1dU, 0x16f3f6fcf71bfcf4U, 0x41f05454ee0f5bdU, 0xefe4edf0eefb000cU,
  0xcd27eaff01b7fedeU, 0xfd0d07faebfc02f3U, 0xfef8fffe02dd10f4U, 0xb8115643ff92ff4U,
  0xf3e0f2f903e60288U, 0xdb08f90100f7ad04U, 0xff021627fde7ffe1U, 0x13f3f8f008e6fcfcU,
  0xf5ecfd0c01d20404U, 0x3040bf602ff0df6U, 0xdb010719fe04fd00U, 0x79070103f704f803U,
  0xfd0dfbc20681fa30U, 0xcfbf4fbf8152b11U, 0xfd12fcfafb000805U, 0xfffd07fb01050243U,
  0xf901fef67ffef8f3U, 0x11350111f6ffeffbU, 0xfdee041306fa0200U, 0xfafe00fff905f5f7U,
  0x6fa1e0005fffbf8U, 0xfffbe01995f8f303U, 0xf7f8ef0d0702f3fcU, 0xfa030521011201f3U,
  0xf9ff02e5070405faU, 0x1010acf81ffd0f1U, 0xefe70101fdfdfcffU, 0xfeff060df0ff07fcU,
  0xf5f8f700030ff6f1U, 0xf2ed40f815fdfffdU, 0x103278ebf20ff9f9U, 0xef9f0137a0171faU,
  0x4f0fff0e80e3d0eU, 0x303228e513047ff7U, 0xc8f72406010c0600U, 0x31304fc08ff0509U,
  0xf409e50e17f828faU, 0xfeedf70f04d4f602U, 0xe0ea01f3fef4dce4U, 0x30af50dffdffcf1U,
  0xe033008102f1faf1U, 0xfc0500d90800fee5U, 0x2e9001dff0405fbU, 0x1744172313f30ef3U,
  0xff4df2010b01020fU, 0xfff4030a071cf3f6U, 0xee09f80c0a05fbe9U, 0x2220f66817def91aU,
  0xa2de881d2e8e21fU, 0x70615424641120fU, 0x2cf90b6522f22a06U, 0x1af629e11dfe211cU,
  0xbdf15062810e416U, 0x2d07fe3c01f6e000U, 0x25cafcdc7ffbff6fU, 0x30e8333005f9d3faU,
  0x85b231e80c151103U, 0xffe50efef1a10ae9U, 0xf0f0f20eae74f4f7U, 0xc19dc89ceede7e2U,
  0xf1f62202f2ef03e8U, 0x63270507f9ea153dU, 0x4616c2140bfd38ebU, 0xe40d2b1fce8100dcU,
  0x9fb0f3106ebc72dU, 0x5dc9d021d0dcd5eU, 0xe1eaebcaeff90613U, 0x91e512fe1b1629f3U,
  0x22f24d2ed66cfc04U, 0xf2f70ff81e0aeecfU, 0x24191106fd301603U, 0x5162df4e620f021U,
  0xf11aff5a07ec0528U, 0xf9eadd59e909d92dU, 0x8116f92b01f20d10U, 0x98ee0d0a3214dffbU,
  0xe11b0e3cb863eef4U, 0x50cdbf2e80fdf40U, 0xcff09f31443b6c8U, 0x3e804d015e59bfcU,
  0xfd129f04123ae3b7U, 0xbc3f6df6e33ed5eaU, 0x1ef939092012e1cbU, 0xfd1203e217c6ee1bU,
  0x44ffff4704e481c7U, 0xf2eee8c8f9dadd41U, 0xee190df2f260eeeaU, 0x8037ffd160219f7U,
  0xc617008705edcb0bU, 0x900efd60d1012f2U, 0x7f50407f82efefaU, 0x5fe11040de0deeaU,
  0x4ce9e217fa31f80bU, 0xf2f2fe02fdd1dd07U, 0x4bc82e0db0001d22U, 0x29aae9f0200516d4U,
  0x10cafbc2f6f60619U, 0x8ef0fd053fe23f3U, 0x312118100112eafdU, 0x205fcecec7fb61bU,
  0x373334def1f6e40dU, 0x3efea507ef43de1cU, 0x5be40fee005ecfbU, 0x2900d6bf59f165f1U,
  0xf60100e51c18fc05U, 0x241b0dff1a0276e9U, 0x7f122bec0efd0106U, 0xb6f629f807fd320cU,
  0xe4f3f31d273d25e3U, 0xfee6dbea15063bU, 0xf5fd06000d0516U, 0x30307f9fa81010eU,
  0xb0404f0f5100d05U, 0xf800faf7f8faffU, 0xd801fcf30408fe0bU, 0x7fcfd06fc001600U,
  0x5f9060eeafefefeU, 0x102ef0c0af70a03U, 0x2d6709f9fc1109d1U, 0xf0f91e7be54dd700U,
  0xe6eff160cafb0a0fU, 0x1516f92f020cba22U, 0x81e1f84804ed03f6U, 0xfa08f0f34018caffU,
  0x1307250cdaebfa02U, 0x17e4f00b3bf50c04U, 0x4c2adc0805d13501U, 0xd61efe2b8413a3e3U,
  0xeedcee1ec2f30ef1U, 0xef09e223effc8113U, 0xdf03edf0f9fe0ff5U, 0xed091006fe2ceb02U,
  0x1c1b230f0415edf1U, 0x100122300f2c0fe6U, 0x520f0afdf7f7f807U, 0x1100efc8020dfa16U,
  0xe5eefe34e60e04eaU, 0x11f8037ffffb0be9U, 0xc114feebfef5f4f3U, 0xfbfdfe00fc15b0f1U,
  0x6050a210b0df502U, 0x150f27fef407ff07U, 0x1c02140eede1b4d7U, 0x900f0ec12f40c11U,
  0xf60302350907fbecU, 0x6feff00f9f90ca6U, 0x1df80af900f6fbfdU, 0x9e30dd318bef102U,
  0xfcc881f30eff0bf3U, 0xd709f2fe08f204f6U, 0x6f3ffe5f71429ecU, 0xe4fdf7cec9dbe1e6U,
  0xf9227ff1eb41ded6U, 0xfa1256f4f8b10dc1U, 0xef8b73e41ff1f13U, 0xfbd7f00d0a210f3aU,
  0x4ceafb33fde350e8U, 0xfaf727100dfede10U, 0x3e70204fe08f804U, 0xf2fcff0b1407147fU,
  0xbfb040736060dfbU, 0xf15b1108f1fe120fU, 0xf1040f04fc0404f2U, 0x14000905f5fd01feU,
  0xfffe2e0af10818fdU, 0xfcf7ee38d0040509U, 0xd7811c0fffd1ea25U, 0x1ae01ed3391268fcU,
  0xff8f9d4fbb52519U, 0x25f2d406f2fc2f08U, 0xd10f2024f41efb06U, 0xd4f304f6faf70002U,
  0xdffae93af73b242eU, 0xfdff1e18032523ffU, 0xfbff01d5f40a05fbU, 0x1fff90518de1803U,
  0x23f503f7ed2a1900U, 0x8f7ec0b06030d12U, 0xec0613f9f9f6070fU, 0x9600080eecf9f90eU,
  0x1013fe5e077f08d0U, 0xfdf81105f7ecdcfdU, 0x1de71f2b22cbfd58U, 0x25f1c033e401f409U,
  0x44f8f4fcf82f20efU, 0x11f10502f608fcf1U, 0x21a0f1af82708fbU, 0xd127f0d901e60907U,
  0x6707dedcc6cf05e1U, 0xfc0aeafafb7f3813U, 0x95ab220afb45b8daU, 0x102204a4ac941d4U,
  0x29191481640a1319U, 0xf8f1f4992a0b72d8U, 0x28dc05ff08170513U, 0xbae31cf40fbb30efU,
  0xdfc09ee1370f160aU, 0xd0d6d4e6bb420b3eU, 0xecedf5ea0cda13U, 0x2af501ea15f0edc9U,
  0x1102e71bd9f81e0cU, 0xde0af2148158051bU, 0x6055e03f9fb0805U, 0x13fbe00414f31009U,
  0xfb17e9f10d14ce1eU, 0x2512131225fcde18U, 0x5d00913e78e1110U, 0xdee59820fa0afbfdU,
  0x1f1f9d7041009f0U, 0x151d06f82ef2fae8U, 0xde07fd0d11feee05U, 0xe7f407160e12fd02U,
  0x530df3e8d8e315f5U, 0xf600dafe017f05e3U, 0xe9d30c09f7feef0fU, 0x6eff73a0e990412U,
  0xfb00f55cdc140cf1U, 0xfb040ab40dfc07eeU, 0x1707ff7ffcfd10fcU, 0xcb050ff9e4f9d3f5U,
  0xddeefbe6fbf201eaU, 0xfa0e2d1a02fa04f9U, 0xf7e30518fb7fff16U, 0x201120206121200U,
  0xa1803e6ff091deeU, 0xf8ffeced08000406U, 0xe00120003060509U, 0xcf020400fd010608U,
  0x6ff17224004ebU, 0x8fdf7fafdff1907U, 0xc7c6fb11fb81e5d0U, 0xfc0c08edf00103fdU,
  0xf51f9e10a0602f8U, 0xf0fefbdc05fa02ecU, 0x34fc0c0decbd0303U, 0xbe120c1011f91ef7U,
  0x6620e31a024709f5U, 0xebf7ff07000f17f7U, 0xb93de7effb05fc08U, 0x1c20f7ffed7ff60eU,
  0xdcdff0a8001215e6U, 0xfa01f804d2d708d4U, 0x530eea53ea10cfd5U, 0x21ced2df617b9afU,
  0x91beb3649110010U, 0xa07e2fdfeeaec12U, 0xff03fbf20100f7f5U, 0x109f8e605f9e981U,
  0xfcf4f604d8f40a02U, 0x71ef3040300faf9U, 0xb0afe020003fe01U, 0x4001efdfd03f900U,
  0xf05e1ff0103f50fU, 0xfa10eb763909000fU, 0x3719ee19131d2511U, 0x408001bf605f8fcU,
  0x1dd30ee700fded01U, 0x10f8ef000b06f725U, 0xcf06fbf3feff03fbU, 0xd411fd0bfe11e213U,
  0xf91322130959f706U, 0x1cfd11010581161fU, 0x3f9f9020903050cU, 0xfa07fffdfffc0a34U,
  0x807030ee412f806U, 0xf3ef00e88104fd00U, 0xfc06fffd08fc0108U, 0xfefb1b040af81308U,
  0xfffb00fffd0502fdU, 0xff0ecb1d110205f6U, 0x60719f0f300fef5U, 0xe7e9ec7ffcddec04U,
  0xfee708d7fb14f5deU, 0x23fa2824f9cf1bd6U, 0x1e00cfa2ec0ce6dfU, 0xf802061b1a0be911U,
  0x1f0dec23faecf512U, 0xf608d80b1718e322U, 0xece8280fee05fd00U, 0x10050ca424183dfbU,
  0xf8f606ff36fe1bebU, 0x27100c3815fc7febU, 0x6f2017f206f20b04U, 0xfc030800f5fbf908U,
  0x3fef2ef29e538efU, 0xf100d6edebf50c00U, 0x3fa02fbf2fffcf9U, 0x10e3fbf4ff280f2cU,
  0xfe10f722e71107f4U, 0x10014c77f0017f0U, 0xe70005fb08faf3ffU, 0xfe024df0f109fa00U,
  0x30107001103fdf4U, 0xf060e321205fd04U, 0xf80006f50e120509U, 0xf10709def7f1ecfbU,
  0xbfa042f0609fcfbU, 0xeefffe1166fb1304U, 0x1520fcf9ff0604fdU, 0x209dd111ffa0f03U,
  0x40df70df4edfcfdU, 0xf00981ecfaf604fdU, 0x13ed0608c5ea1f57U, 0xfdd4ee210b050a06U,
  0x24feefc4eb00f7efU, 0x2fff3231f15ff10U, 0xf901040f0533ed08U, 0xffcdfa0dec4081faU,
  0x967200523e30a0bU, 0x79f70cfd07060703U, 0xed1a0fb398dce2b7U, 0xf11a05eeffebf8f4U,
  0xd511f8df1b72f1efU, 0xef02fc0106f601e6U, 0xeeeff4fd000bfdfdU, 0x8510f911ae53b01U,
  0xf216f302f903037fU, 0x43021df4021531efU, 0x1d24f100fee903e6U, 0xf303e204fa0202f7U,
  0xf704330bfcf403U, 0xf803010410000804U, 0x81fbf8f9fbff00ffU, 0x27fafcfe1a01fc01U,
  0xfc02031ce10e0504U, 0x5fe11fc01f1fbe7U, 0x2fcff00fcfbfb07U, 0xeb02fb1402fa010eU,
  0xfffefa1bf000fbffU, 0xf4030114eefffdffU, 0x7f0501eefc010401U, 0xf907fdffdc000d03U,
  0xfd0404f80bf80106U, 0xfb01f10503f9fe01U, 0x37285904201c4112U, 0xf01d00c408e20230U,
  0xfaf5087f2e06f532U, 0x5080b6ab30e1247U, 0xe124fc020a11f803U, 0xef16dd0b0330c50dU,
  0x123e430dc616fafdU, 0x270f9804ccfb071dU, 0x15fa01ff04060303U, 0xf803070a0803faf4U,
  0x2f3ff0034ff03feU, 0xe4000002f9fe0a0aU, 0xf6de0010f703f4f9U, 0xfc11e20e02f70a05U,
  0x400da08f6f002fbU, 0xfad7237fe901f1fdU, 0xdfaf7ff0916ebddU, 0xff7ed17fe0ef3ffU,
  0x2df84e20f6f1f714U, 0xf50503fc072ef9f7U, 0x1101fd006a17ff6dU, 0x1306fd01ecf8007fU,
  0x1004f603f8100007U, 0x402f204fd00fd28U, 0x1df0f821c9fd1e7fU, 0xe8040720ff06d601U,
  0xd6a5ebaefa12f605U, 0x20f218df1e380806U, 0xea2a1b213452fa1eU, 0xffc3fb54f610d0e8U,
  0xd080df50af406ffU, 0xda060f03fefe1721U, 0xec04e9fd02f9f418U, 0x7ffdd6d713531a10U,
  0x1daec02f1152afbU, 0x410b0d0cf1f61dfaU, 0x66fb2c0a24f9fe0eU, 0xfcfbf709f3faef01U,
  0xfe05f4ee31f018ebU, 0xdf4f30900f40d03U, 0xfef5010b0a29fef2U, 0x40509270c05d7ebU,
  0x13130905f303fcd0U, 0xfa2042eeeefc08e3U, 0xdff6ee0a030001f3U, 0x68f8e6fe0400f316U,
  0x1bf9f2d1f781ef00U, 0xfe11e5f4f0f528U, 0xe27fb7ffff6fcddU, 0xf8ef04050ef5fcffU,
  0xf41307080650c2fdU, 0x14f9fcf903f4cc0bU, 0xe10201ece5e9fbfcU, 0xfde80822150d0dedU,
  0xc090018df03f755U, 0x407030dff0d9beaU, 0xe5530f24090df016U, 0xf0f1404bf64802f4U,
  0xec2703813f1da81cU, 0xefd0ffaf25fd0506U, 0xc502eb1ff8e606fcU, 0xda03f50afdf2fbf1U,
  0x90f0fd12e0c5d4e0U, 0xf903c40122dc28f2U, 0xf7f50ee100fdf9feU, 0x180ef75b0af9f9e1U,
  0xf308ff7f12dc0500U, 0x1b0515e80f0412eeU, 0xb06f247080103f4U, 0x3f7f0fa0401150aU,
  0x707ef141710f91aU, 0x10309ebe402ca0cU, 0xd4c0051f01ff0116U, 0x7085e0efe3cfdf7U,
  0xed2e05ccfd1d2cfcU, 0xf2fbfdd30901f8f4U, 0x3a080e0e0f2403f3U, 0x6e0dfd00eb0b23f9U,
  0xee0cfd981da204e7U, 0xfe07eff4fd191b7fU, 0xdb1b81e2fc14f10bU, 0x14fb02daf500ed19U,
  0xef15fef4f5eddc01U, 0x40c1722ebf0eee7U, 0x1704ea0a05f6d6fcU, 0x1602f90e12f10a06U,
  0xff1ff0505d70f00U, 0x4220611f00e11faU, 0xe3d32118f10aec09U, 0x160103d038305710U,
  0xf7e504ec2a1a18d2U, 0x162519f4e1fb7ff5U, 0x6e2a2207030b0df5U, 0x10020503fffbf9U,
  0x25f8dcee31f634edU, 0xe90ccae5e62e0a0cU, 0xd24020df4f60a0bU, 0xecef00fff2140509U,
  0xf9fcf3120afc00ffU, 0x802f41001fbf516U, 0x7ffe09e2eef70bf8U, 0xf3060bf90404dbedU,
  0xf7071bd3fee2050eU, 0x6fd11fb01f710fcU, 0x1462d0000132eU, 0xb2c500003511U,
  0xc0000000ffffed42U, 0xeaa400003faeU, 0xc4f000005408U, 0x1af60000365eU,
  0x48430000c45eU, 0x197800005ce6U, 0x294000000750U, 0xe19e000011f1U,
  0xfffff78a000019d2U, 0x91540001b6abU, 0x4b3effffa48bU, 0x494bfffff2c3U,
  0xfffff4aa0000583fU, 0x1ca700008694U, 0xd8f7ffff103eU, 0xfffff9250000b4e5U,
  0xffff57250000389fU, 0xdcf600001680U, 0xffffcc9d00005b85U, 0xb6dd0000b749U,
  0xffffd52a00000e56U, 0xffffa9ef0000327dU, 0x12b2ffffe421U, 0x613a000000f2U,
  0xffffe725ffffe07aU, 0x11afffffa13eU, 0xffff9de700007007U, 0x1a6dffff7babU,
  0x5342ffff5877U, 0xffffe47b00001eafU, 0xa9489140bf3bc3c1U, 0xbe38bba354bd423eU,
  0xb37a20c1d037162bU, 0xc830add3c1c3603fU, 0xc93d46a542b6b8c1U, 0xb3344ecfb9434645U,
  0xcbcdd3ba7fb34235U, 0x4455a83fba50328aU, 0x9c59335aa75751b0U, 0xac479d8156a75559U,
  0xa07f38adaf7fa44eU, 0xa555a5b2b5b0c53dU, 0xaf5e5e955e9e5da7U, 0xa14569bdaa53555aU,
  0xa3aebfad60a2614cU, 0x577ff559ab6a53c0U, 0xe130c330d52b48d9U, 0xd818d2cb26e02326U,
  0xd01a1be3d856812dU, 0xd32ee6d7dfe5f914U, 0xe33528cd37c330d7U, 0xc81e36d2dc1c1734U,
  0xc9d2d8de13cb2e22U, 0x1e41362adc3034f1U, 0x92624956a255b2a6U, 0xa262a21965a6655cU,
  0xa0525aa8b2b42455U, 0xa13b9cb49b987f79U, 0xa8545f94629281a6U, 0x9a5e5b57a2626660U,
  0xb2a8b29810a4585eU, 0x62b681559e6152b7U, 0x817f5c7f817f7f81U, 0x817f811c7f817f7fU,
  0x81357f8181f58e7fU, 0x817f81818181967fU, 0x817f7f817f814f81U, 0x817f7f7f817f7f7fU,
  0x81818181de817f7fU, 0x7faacf7f817f7f39U, 0xd7402842c54861c9U, 0xc331c3163ac73638U,
  0xc8ec3cc4c6148a40U, 0xbc51d4c1c9d50b2dU, 0xc94237ca48be20c6U, 0xcd353b3bc92f2c39U,
  0xb5c5b6cae4c13c37U, 0x2fd3293dce3e5275U, 0xce2c222cd62af8ccU, 0xd335d74827da372aU,
  0xd70c39cfdbba0339U, 0xd01be0d9c9cf3f48U, 0xd42927c63cbbc1d4U, 0xcf3120d2d92a2e38U,
  0xdbd0d3d2e4d4233bU, 0x30e5de23ce312fe1U, 0xce417f45c4405ab9U, 0xc146d16036c5483aU,
  0xcae155bbbfaddc44U, 0xbc3dd5bfbbcbb94dU, 0xbd3341bf4cbd15c4U, 0xc74132c9c63a3d42U,
  0xc1c5b9c6adcb384bU, 0x3bd8df3cc141446aU, 0xf12b4a20e52827dbU, 0xdf1fec241be11f18U,
  0xe6e42adee5c4e914U, 0xdb2bf2e3e1f1021bU, 0xe0181fee20ddf5e9U, 0xe91c17e7e21b1a1eU,
  0xe0f0dae2dcdb1b1eU, 0x16e4fb1ce521277fU, 0x5bfb00015b0aU, 0xc514000027d3U,
  0x4d000030eeU, 0x1d2fa00003fc4U, 0x56f00001fe2U, 0xffffe26800011394U,
  0x22854000002b1U, 0x1902efffff73bU, 0x120fe00000303U, 0x1852e0000016bU,
  0x93b0000ee07U, 0x25af2ffff8226U, 0xffffda8500001456U, 0x1c5200001681aU,
  0x125a500012529U, 0xd437ffffb055U, 0x565800006e61U, 0x6a0001abc9U,
  0xfffffdd30002a21bU, 0x17710fffffc49U, 0xfffffa550000e9eeU, 0x19774ffff8147U,
  0xffffd064fffffb61U, 0xf14e000002a1U, 0xfffff544000011a0U, 0x14080001a1dfU,
  0xa76500007333U, 0x1b9a50000ed77U, 0x19400000c609U, 0x19353000000d1U,
  0x113f9fffffc27U, 0xffffa891fffff847U, 0xfcef0006f30fc01aU, 0x8f4f92a2fe71102U,
  0x33014f8f40e1804U, 0xf908dffe13aef8f6U, 0x25fe02d90dfe11f8U, 0xe97fe10a1d650527U,
  0xaede0ff1afcf80bU, 0x51f3ef02a0390bf9U, 0x210000f5eb0000f9U, 0xc210af20128e530U,
  0x511ed24ea02ebe6U, 0x8118f200f513ea2cU, 0xaf436f0edfc08faU, 0x1608feede3f921fdU,
  0xf01df0508fe19f1U, 0xe3ecf11011d0f7e2U, 0x10090014fc1d10fcU, 0x6ffe100fa7f0206U,
  0x71b04f80616bfc9U, 0xeb22ff0506e6fce6U, 0xd3f2e40501fa03fdU, 0xfe0b09080b3506U,
  0xef682afc00ecfef3U, 0x8210fb4dd1a25fcU, 0x200eff90f0806U, 0xbdf2ef1db1703f1U,
  0x2106e80a290beb05U, 0x24e61328de2e011cU, 0x804f89adb09f80aU, 0xf8ea3a01e52f0605U,
  0x260130fefcd3c908U, 0xc0f9fe08810d09efU, 0xbff6007d24e9e6fbU, 0x17fee1f6096bff0aU,
  0xa7cc32aa1b01c6f0U, 0x2acffe13040d10e8U, 0xeacfb7ff01e3eb81U, 0xf91c031e250fe00aU,
  0xf3f4f2073f05e2efU, 0x273734a11007f3faU, 0x70500fc22030a19U, 0xff21fafd03ff24fbU,
  0xf239eaf4f83ff0d5U, 0xef1d07f6e9ff1000U, 0xf0cde7fe9efd0fe7U, 0x11ff39e7ca242f12U,
  0x519f20b07fb2429U, 0xe3f4137fe503fee5U, 0x10fe008c421b0ffeU, 0xfbc526e515fc1aceU,
  0xe327e20c2afbc7dfU, 0x200a01c7ccf8f509U, 0x10dcd4e613ffee7fU, 0x17d7240016f4e9faU,
  0xcc0c080c370cd2f6U, 0x6f0eac021f21bdeU, 0xfefc00eff77f04edU, 0xdf409020400ebfaU,
  0xa1210fb030f02f5U, 0xaf7f40c0afafa00U, 0x14fefc0405020200U, 0x1f3fefefdd600f6U,
  0xf3faf80c110c0522U, 0xf50f0510fcefa3e9U, 0x55f300ea05ede6fdU, 0x2213efcfe9a4e603U,
  0x32dcfc77ff3e3eaU, 0xd6dfe6ca6d7ff05U, 0x32d41df0f40f02e6U, 0x3f0e1d720edbd00U,
  0xe01c0700fd090ff4U, 0xf4cc12c304f10018U, 0xfa1c00fafaeef7fbU, 0x312ebfb062a02f1U,
  0x763e0affed01fdf7U, 0x2e25e4dfef0d01ceU, 0xabe9e01b170710faU, 0xff241326f70ef3fdU,
  0xcff316f5e9de34f2U, 0x7f0eea2e2030ee0eU, 0x3a2500cc2411101eU, 0x29e6110a51071b13U,
  0xe507f70a040708f4U, 0xecceed7e8ace8c9U, 0x2cf1eed11b130510U, 0xf41de3f962f6eedfU,
  0xf3fefa4ae7e6ba09U, 0x61f8caf081282003U, 0xfd02000b0c020cfaU, 0x413f6f4fe81e702U,
  0xd04f917f11c0af9U, 0xddf0f5faef25f604U, 0x171de3ffe5fef8feU, 0x1901fdf9e5fc2301U,
  0x6f9f101fbf512f0U, 0x50800030ced0a0dU, 0x15070021e6080d02U, 0x17f1705fc07edf9U,
  0x31b1eddfb070c09U, 0xef12f2050353d7e7U, 0x802e41208012703U, 0xfa1ee0f6e6f30cf7U,
  0xd8ebf60019ccf9e8U, 0x9e611f2e5e6fae7U, 0xd90900050ce70215U, 0x4f07fbfcf91ef10eU,
  0x270af0ec151000fcU, 0x90303082081117aU, 0x290b19ccfaf8e7fbU, 0xe60a24fc32f5def1U,
  0x807fefb042d1debU, 0xda0c0e34d200f90bU, 0xfb000105ef810eU, 0xfe2b9d2329f9f0efU,
  0x193817ecf5d361efU, 0xe82e07011b03e5afU, 0xf7fef81cf84c0bU, 0xff2205f803fafaf0U,
  0xb8eae013f4bc46f1U, 0x3bf2ed06fd37e100U, 0xcbfb00e91719f8e8U, 0xe613dcf2e20912dfU,
  0xf60d05f5d60413fbU, 0xf5052e0028cf03e4U, 0x13ff112304f40bf5U, 0xd78cc50238a506e3U,
  0xf2f4f4df010a0119U, 0x37e5f4ea7fff1206U, 0x405000205fadf7fU, 0x105ebf1220703f9U,
  0xdf504ed000b01U, 0xf80c10ef17090100U, 0x1df8fde70dcf0404U, 0xf6b6f0fc14f6026bU,
  0x9fe00990bf8f6faU, 0x22fc0bfafd0603f9U, 0xe7e000ea1e39fde4U, 0xeb07e61429057ffdU,
  0xe920e5fceb1e010fU, 0xf62514f31ed8fa0bU, 0xecf7f204f90af905U, 0xf2e001fe14eaf205U,
  0xe1f5f208040a04d2U, 0xe205d4e84dde15e8U, 0xcff400fdf202f91dU, 0x1bff00f0ee0a04e7U,
  0xfb1e05f6e3060b10U, 0x814191809c90a0bU, 0x30026f704fff9U, 0x41596fe177f0431U,
  0xb0d02fc1405050cU, 0x3009f4fede2efefcU, 0x4b25001abd06250fU, 0x3b15271afc8a011cU,
  0x4adefe1de8faaf15U, 0x1908f9e77581da38U, 0x6e3b08efd5ff0e0cU, 0xe7fd1c1adb2945f9U,
  0x37e5f707102301e7U, 0x961cef1eebdaee40U, 0xfbf800f90bd1faf5U, 0xf6f40300ff00d6efU,
  0xea04fffb0e0e03f9U, 0xfd09eefa0df90303U, 0xf50807ffffff1201U, 0xfce8fdfd0ce50003U,
  0xf1fef60f0bf8f07fU, 0x30df90017e56b00U, 0x696300b403e3f04bU, 0xecda41d7174de547U,
  0xfcfe051e20547feU, 0x3ee2ff4e81d3c067U, 0x2315e755dbfb03edU, 0x4eeb09d0ea09d1d1U,
  0xff331af60b331ce6U, 0x36e9b700f90bf52dU, 0xdc1400f1f8ef00d7U, 0xeafdf0fdd25ce015U,
  0x7feef31c02f9ea04U, 0x5ce6f9c13825f4deU, 0x59f2efe70104010eU, 0x191427cd4636f912U,
  0x4f79dfe3106d9fbU, 0xc4e754d1401be012U, 0xff0800ff0c02eb07U, 0xde03ff2dedfd0e16U,
  0xfb25ff08faf6fbU, 0x210effffb0608f6U, 0xafdfa0007f80006U, 0xfe7f450600b5fb0bU,
  0xfffefa03040201fcU, 0x400fffcff090e06U, 0xe6e800061704f315U, 0xe2f9eb1a13dc09f6U,
  0x26fa13f50e187f0eU, 0xffd6f2fe0baaf2dfU, 0x2e2527ef0408d5f6U, 0xe34cdaf5fd32d5f4U,
  0xf6f9f8ef2af1180aU, 0x14eb0fd7f31a1b0bU, 0x810300254c30cdf2U, 0xffebfe2176ee6c8U,
  0xd92adc24b1e01159U, 0xf695f0c592a52942U, 0xca4918f215faf313U, 0x1e03edf9a6e58dfbU,
  0xddb409de3b0112e6U, 0xc2e0ed1accfa0f0aU, 0xe62600052318fb44U, 0x1b0de11cf2f30238U,
  0xe82708f702f8e6U, 0xf50207f31045ecf3U, 0xcf05f9f3f9ea0617U, 0xa81adf6f90818f1U,
  0x6de08edeefe00fdU, 0xc8061df327ec0f08U, 0xdeb00006f6050306U, 0x7f9fc0581f20704U,
  0xfff90e01fefdf8feU, 0xfefb45f9f90305fdU, 0xe7020fec07e3ff10U, 0xf9e305fdfcfe0fdaU,
  0x4fe0a1f02ec0613U, 0xf806fcfa05e7fd08U, 0x11f10008ee01f802U, 0x2603f904fdfb06edU,
  0xd05e7f57afefbfcU, 0x203e88108f9fef7U, 0xe9ff0b0600fc08f6U, 0x40107fde3090111U,
  0x11f9ed15070207eeU, 0x4f9130ffff8fd05U, 0xff1200e5f7008d1cU, 0xf910d710e3c90302U,
  0xdf913fc0bc903U, 0xff29f4e513e81a03U, 0xe708e4f730fd81f2U, 0xf9ea1b071009f4f3U,
  0xfcfbdc00c20af3fcU, 0x91230000611099bU, 0xff0e00f11409ec90U, 0xdaf6f20a4eee0608U,
  0xf70b0dfa10041204U, 0xfffafb1a0ce3fcf4U, 0x17fcf8e5053e0201U, 0xf82225060b251181U,
  0xfff1f70813edf504U, 0xfd0504fdf40f08f9U, 0xe7f800ef12f40cedU, 0xeef2fffc09067fe8U,
  0xfb030dfd05f904faU, 0x31401fd02e5f7f9U, 0xffffcf501fe090aU, 0xfae6fd0d0afcea04U,
  0x60bfe00fc0603d8U, 0xf30002ecfbd72d04U, 0x40700fc05e60bfcU, 0xfd09140d0bf27ffdU,
  0x15330002f6fb00f6U, 0x511fafbf908032aU, 0x8faff04fcf501faU, 0xf9fd0010fcf7fc07U,
  0xf8010311f9fc068dU, 0xe7fc17f90c0e14f9U, 0xc2d600f9d61af781U, 0xec10db0369d310f4U,
  0xf35fe8f8e53a3d03U, 0xf02cd3120fe8f938U, 0x1d2a09c80a390503U, 0xd910de19057a1789U,
  0x1d1cd9240ff40618U, 0xfd13131be11e15d8U, 0xe3d700f7fd0becbdU, 0xf3ffecfb81f905f7U,
  0xf60e01050b03f706U, 0xf7f905eb0bf101f4U, 0xffbfae908fd0712U, 0xf4d048ff1319fd2aU,
  0xeaf3ed0909eaf2faU, 0x14fafef01d060afeU, 0x8fc0003810206fcU, 0xeff814c5f7e91b97U,
  0xed10ce1adcfefd5aU, 0xf1f6f72aff0c0710U, 0xf60c0b09f1fff6baU, 0x30719032b030ee7U,
  0x26ef6e51d09e911U, 0x7fcf4fb25f60906U, 0xf2f9000f1105f41eU, 0xe9fef827f1050215U,
  0x90f21f2120d17f9U, 0xfd0ff8f805fd07feU, 0x2fdfcf4feeb0504U, 0x17f1c10f106fc0eU,
  0x11f2fcfdfd0af9feU, 0x60b10fdef15fbfdU, 0xef00f40feb45fbU, 0x3a140af606810cfaU,
  0xcfdefe06f8fb36e5U, 0x44de0b000016fddcU, 0x5d8e9c60e040ad1U, 0xe525f9ff32f7fd05U,
  0xe00405f6e9030600U, 0x6d08cc21e60312c9U, 0xcfde00d60712f5efU, 0xa7d3f00219f97fe6U,
  0xd7ed100c161ded01U, 0xfd1806f525ea10dfU, 0xe2e4ee240508fb0bU, 0xecc2251f3ef60429U,
  0xd903d4360d1efc0aU, 0xff0d10e260e63ffeU, 0xf80500fef508e901U, 0x51ebea06e5ec06feU,
  0x119fbeb0600fafaU, 0xfb05110a050ef715U, 0x25fd11b4f7fe0504U, 0xee0f35053d270b18U,
  0x6fcf209140bf112U, 0xd1ff0115811b10f7U, 0x1c0100f7007f03f8U, 0x1306ff02020b25faU,
  0x100a1d04f80b28f3U, 0xff0aeaf6ff0f1e0dU, 0x1ef8fdfa050cdffaU, 0x11ffef0f8e8fa03U,
  0x403fc07f70afcbbU, 0xfff00706fa0f88ebU, 0x6bf9003ff9e63b4dU, 0x22e7f7a3fe3c0eddU,
  0xf0819cd707f2f2eaU, 0x9f4ec05f535ea1aU, 0xc701ec0b2700f8b5U, 0x4bf2b04feb3c3b5U,
  0xf10a072fe91e05e6U, 0xc519c21751dcf015U, 0xf8fb0003ee02ff7fU, 0xe4faf5f8f10009fbU,
  0xfef912f3fa09f8fdU, 0x5f80122fcf5ff14U, 0x70803f90beef9f4U, 0x91e15fd08130107U,
  0x2fbf8d304fcfd01U, 0xeefbfa07120d0af8U, 0xf00c001d0dfb13fcU, 0xfbf3110d810deeU,
  0xf7f8f701f6f8210fU, 0x1ce6f4daf8101c02U, 0x2f1213fa2501e4f0U, 0xf81ff20dfeff07feU,
  0x12eef1fdf40a00fcU, 0xe609010f120b0218U, 0x33fa00f01b1e11e5U, 0x8e2f25f9e8ef08eeU,
  0xed1000170f27f305U, 0xf0e2021c034df8d9U, 0xf8ecc628bd130d05U, 0x11d6c1f981e21fe9U,
  0xfdf5dfe2f7b81105U, 0x2bf610ca19c91aecU, 0xfc0f00fb07fe0481U, 0xebfb000249fff9fbU,
  0xfb0100fd06010107U, 0xff02cb09080604ffU, 0xff0100fdfb2201fdU, 0xf80b23fcf91b00adU,
  0xfb01fe2600fefa08U, 0xf402fc010ffafe01U, 0xeb0500f7f8f824dcU, 0xf6f8d2f5f0f70ad9U,
  0xeb8140e8f63fc4fdU, 0xf701fc0624d50fbcU, 0xf05060f2decea28U, 0xd08fb301b040b1bU,
  0x2feea03d8140ff2U, 0xf0d5dbead71e00c6U, 0xf700f40c0dd600U, 0xf3f4e7f2f5fffff4U,
  0xf31304db0ce73ff3U, 0xe43107f3e6150906U, 0xc6122b210209fa13U, 0xf310121838fb04f4U,
  0xf006ee0115de2cfeU, 0x6b092115120a0f81U, 0x24ec00fd00fc06fcU, 0xaae401090efc1609U,
  0xedf2150203f5fbf9U, 0x202faeff914f7f0U, 0xcded0a29fcff080cU, 0x13dbdffde6e8d504U,
  0xf50df40c00dd060eU, 0xeaf9ff067fe0f5ffU, 0x4cd6001b06f71009U, 0x9bfe1ffe08acdd01U,
  0xf1e206edf3e91421U, 0xc34506e20a19033fU, 0x81cff4a6150af009U, 0xda10d3032509e6f1U,
  0xe9fbf3f607f52cf0U, 0xe809e20ae210f70cU, 0xc3db00fb14035c22U, 0xfc17e0f4b714fff7U,
  0xc1b16eff100f6ffU, 0x5f81d0811bb2c13U, 0xfa11fa11fbc7e8eeU, 0xf6af81f910700540U,
  0xeb1f180af2040f09U, 0x49f5e7f707f700e7U, 0xf8dd000cc6ea16fbU, 0x13f0f9b12d0ff381U,
  0xf5fbaece2109e70dU, 0xf6cd05d8fc06f412U, 0xf4f2edf9ceedfbb5U, 0xff07e60819c80118U,
  0x510d81d1ce905f4U, 0x40f2df5fd29f0feU, 0x1fec00e3f3fd9b36U, 0x16f0c41501f1ea27U,
  0xd300fb8481f19e7U, 0xd87fff24e23647d5U, 0xf8e226f5fef4fefbU, 0x182f12081f1d0e12U,
  0xf70ef729f8d6fb07U, 0xfe0a11bff51415faU, 0xfbea000d0b12eeefU, 0xe9e8c01918e1030dU,
  0xb6405fdf503d8fcU, 0xf50b09e7e1541781U, 0xe8040be8fe01a2ffU, 0x111fe90f01e4f509U,
  0xeb02d605e8e31e05U, 0xf7fe082b010fddU, 0x18110021fcf2d80fU, 0x330eeff7d2fef82eU,
  0xfb050701f4f90bfdU, 0xde070a04ffb0f7ffU, 0x10526ebfef225e4U, 0x914d1f8d97ffde3U,
  0xf6ede21c32df1ff0U, 0x13070b2bd527e804U, 0x1207001745eb3d14U, 0xe9eb1e12fff2ecd9U,
  0x305eb81fe240feeU, 0xf3cbf5e3f80a0721U, 0x102c0cee66001eeeU, 0xf90f0f38140b47f4U,
  0xf822dd04fc0833f7U, 0xd34bdb340ec8ee1eU, 0xa1f60012c407fee9U, 0x9b14300de92af42eU,
  0xf1023e6d3fece81eU, 0x4a4f7d6f07f241dU, 0x943f16cdb4d8e52bU, 0xd11f52270166fe9U,
  0xb0c9cbd7350aa4e8U, 0xdc14b9012bcae8ffU, 0x25f3001b0f0f9ed1U, 0x1b018113361b10ecU,
  0xd7e72ed1eee641faU, 0x85715f4fc15fdadU, 0xf0318f0030743f9U, 0xff5ce8d1fc03eef8U,
  0xdcd6e53927d91606U, 0x49f3ec1dd23ae700U, 0x140000fdfbfe20f0U, 0xc61a06efed0be303U,
  0x340bf80af4eaf002U, 0xf2f1f609105209ddU, 0x16f318141410fd05U, 0xff4db0395f90214U,
  0x4010a08eda625faU, 0x7f00070ec503ecfcU, 0xe40f00da12110efcU, 0xede425fc0b0319efU,
  0xeffaeff4f50df2f7U, 0x621f601ffd503e4U, 0xf7f9f5450711fe04U, 0xf2cd04f20ed5e611U,
  0xe709f80bf525040eU, 0xeef6f1ef7fdb15feU, 0x2f3001f2210f5e8U, 0x4dde2f5d90efce3U,
  0xff3dd0c03d45d16U, 0x2df519fbe33a1609U, 0xef42fb0806faae21U, 0x1d814e5f0bcd606U,
  0xfc080ce60ded0af2U, 0xcafde600edddfd81U, 0xee1900fa033effefU, 0xe5f9f9f315d2fdU,
  0xfbea1bfa08e6fb12U, 0x5edf703f4f1f9f2U, 0x5fb0bfaf303fbf8U, 0x3ef03030c03fb07U,
  0xfe1708f4090cea7fU, 0x616e500f5eff424U, 0xff600f804fd0028U, 0xddf7fcfb5efc03f1U,
  0xfbfdf8060f03fa03U, 0x1fedef80c01000aU, 0x12fb07f200f60204U, 0xffde5dfff730087fU,
  0x103019804020109U, 0x405fe04160406ffU, 0x70800d42411f91bU, 0xff061cf71301ecf4U,
  0x55720042a08e7eaU, 0xccbd42ccf23fb11U, 0xc7ebdf2ff8e20cfdU, 0x5019cff90cf2fa0aU,
  0x7fd162b202311U, 0x81f71eea09e800f9U, 0x1a1b00e702fe0505U, 0x9faf4d6ebf5e7f5U,
  0xa06d811da0cff04U, 0xfd0433de0bde0812U, 0xff070f0bfd070400U, 0xe181d9fa24a300c2U,
  0xf710fbd9fdec0c21U, 0xef1f10d50ecf9fcU, 0x3e0f00fc7f120202U, 0x1a08f01101e70f64U,
  0x6061f130c01149fU, 0xe90cfed5f8f6fc0eU, 0xeef900fb210efa2eU, 0xf3fe0bf4e5f5ebf7U,
  0xf3bbfa01f704ebf6U, 0x4f4040504170100U, 0x60800fd13fe0701U, 0xdb010029ef000810U,
  0xff042dff11fafcffU, 0x504f3fb03f709fdU, 0x7fdfe0809fefc11U, 0xf97f3a0701c0000dU,
  0x6f80404fafdfffeU, 0x60500fb040407fbU, 0x7ce00f2b9fe15f5U, 0x6fcfff5120cfed9U,
  0xe303000aecfb0121U, 0xfde83801f6ccfbc6U, 0x34060110f816fff9U, 0xf97f020632df071aU,
  0xeb24ef4215f4e4f7U, 0x72fbc701a65605fbU, 0xeed002e03f8ea02U, 0xc311b7f9f9ee0602U,
  0x1defeee3f40c1b05U, 0xf51f19014e20f31eU, 0xcf141ef80df00795U, 0x1b34d819ca0dff03U,
  0x1e030bfc02067f10U, 0xe2241a4138d6ef0fU, 0x2bef00c1d1b9f4e9U, 0x192be1e100a2e947U,
  0xd50910c07f0e1c9cU, 0x177dff43deea1111U, 0xfa928130bfe06ccU, 0xefe40e280369fbU,
  0xe56710fee81502feU, 0x45fe0f0ef90ad6f7U, 0x13f6000cebfaffe4U, 0xbea9400ef3893d12U,
  0xa80efd1be1eabaffU, 0x811003c21b0eebdaU, 0x44dd1213ed070d16U, 0xf8f5d9f8be0ce3ffU,
  0x6d18d6fffadefc50U, 0xe7081132f8f2dc0dU, 0xfded000d096f2206U, 0xf30a09f810f60afdU,
  0x63ee2080a11ec0dU, 0xf2fd030f0ef9f40dU, 0x1508fdf7f4001efcU, 0xfbfe0bf9f4e6fafbU,
  0x9f7070d0d1812c1U, 0xf6fbdfff10f68101U, 0xf3050006fa3600fdU, 0x3e19d40feafe210fU,
  0x20080415dff812U, 0xe5f304380727f6e8U, 0x2d0506ee1e140eecU, 0x3f0fcefa7e91508U,
  0x38fd21ff06cce812U, 0x3cecfd0981f23600U, 0xcf600e6f405810bU, 0xf4ed0207342b061aU,
  0xe76c0df0231bcdf2U, 0xd818f11310ae02f3U, 0x2dd9f1e035f4b804U, 0xeb34ebfd1e15fcfeU,
  0x913050afa101503U, 0x32f2091ad126fee6U, 0xd70d00a73a621ef2U, 0xfd46f1210bed72cbU,
  0xff3ced16fe10071dU, 0x1447fefa7f60033cU, 0xea12e00a4cf518f5U, 0xf8dd13ee57d92b20U,
  0x91e7141f0e65a35fU, 0x8d0f0fdb11e973ebU, 0xf80400fffd02faf6U, 0xe5fd0afe5c0201faU,
  0xfc0306f614fc0407U, 0x304e811fbfafb07U, 0xafd00140008fefbU, 0x1272f05f13bff7fU,
  0x100fece080b05ffU, 0xfcfd04fe011c08fbU, 0xcdf3003400f30fefU, 0xee1bfb080602e80fU,
  0xf125f305060a03U, 0xd26e1270f371332U, 0xc4060a4900e3fcf6U, 0x1e000606c32b0c10U,
  0x81005bb12222007U, 0xa71119077fddeaf8U, 0xdff900f71c0bfaeaU, 0xd0013fef4040001U,
  0xf60c16f402fff9f0U, 0xff07ee02ebe302e9U, 0xeff8f811f813fff4U, 0x8ffcb00f17ffb15U,
  0xaf5001b0a03fe07U, 0x110109f6f11bfb01U, 0xe1fc00fbdc142e09U, 0x1d1d051239f2051eU,
  0xdf0c070df7040cfdU, 0xcc1409f54ed0f17fU, 0x24e5d3d502261008U, 0xef26061a0d3645ecU,
  0xf913f2e2b81adfe2U, 0x363c0329ea280c0dU, 0x81e800454b18d113U, 0x1cdd8b1bed02e2cbU,
  0x43b811e8d3be073bU, 0xfecedc9c3564dc3U, 0x226e8fde0070c24U, 0xfd1e0cf2cee5bdffU,
  0xeec5de011fec03f3U, 0xe415df4cdd0b2eaeU, 0xbe70046e9f30613U, 0x49177fc73318a3ffU,
  0xf6b4e0cf66cf250cU, 0x1e200bdbb854f3acU, 0x9bf09c183805fd48U, 0x3bef40249a3d2246U,
  0x2c2d213aa205d48eU, 0x931d11c1f0f2f122U, 0x101200f816120e7fU, 0x9fc01f812f901f3U,
  0x40ef20920fd0cfcU, 0xf8f5e00500e611dfU, 0xedff000a03fc010bU, 0x6c51ffaea4d0c6fU,
  0xf406f9c4fbf9f7faU, 0xf600f914f510ff01U, 0xf600ff0813f2feU, 0x19f6f406de0d0103U,
  0x2e0b13020b11fefeU, 0xffd130ff929fe0dU, 0xf111018c02070211U, 0xd9f929ef212006f2U,
  0x80102fe08eeeb21U, 0xe6060c09812505f7U, 0xc4f100fbe50af9fbU, 0x9f8f7eef60b08f6U,
  0xff0300f5f3fd060cU, 0x30ddf0c0fe808f7U, 0xe7040302f901fd02U, 0xfefdae010f7f02f7U,
  0x70afb240f08fa1bU, 0x25060b04f7110507U, 0x8f30001f3050b1cU, 0xd5f9ec2ccf0b0913U,
  0xfaf90218f8fc01U, 0xeb0713f905d70a01U, 0x160b1ce7080712fdU, 0x67f50fef59ff6f7U,
  0xf9f0fd00f8f70a07U, 0x16ed0c0df702fe08U, 0x1e16002303e635c4U, 0xb0e27d4b40de6f2U,
  0xffb2f5090cf8f90cU, 0x1be11c1cdc5b06ffU, 0xacf5ed68060efaeeU, 0xfc65901d4810b91U,
  0xe91b1610d81816e2U, 0x9702fcf06fc5e511U, 0x3a3d00ffd6f8c94bU, 0x56ec7fc100bce00dU,
  0x64a62e0410c917U, 0x17ccc309a1e5fbfdU, 0xc7d9196bc4e7d30bU, 0x32d701dc02bac10cU,
  0x1101f2e33163fecfU, 0x87e07cf856becd05U, 0xfd0200f904fa0af5U, 0x700fbfc7f03f802U,
  0x700f808f9f9fcf7U, 0xfd09bd010b010501U, 0xf0207010102fdfdU, 0xf802fc020af3fbf2U,
  0xfefe021203050300U, 0x13fafc00020afc02U, 0x100b00ee2afd140bU, 0x387f34ec07cafdf5U,
  0x2205d2f8101100feU, 0xf5edf41622a5064eU, 0xb223f1f7d0f5f3f0U, 0xfbea0ffbe5dc1400U,
  0xea0c16fdf50d56e9U, 0x19f5130afadcf819U, 0x29fd000be707ffd2U, 0xfde2d9f9da250924U,
  0xf95aeceeee1a2ff1U, 0xda4716f3ff7f0a98U, 0xe2e6ddf9d6012413U, 0x8d9dd000ce33807U,
  0xe323e61036e3100cU, 0xd5fcf80d12f704bdU, 0xe203000df402fe1eU, 0x571f04ffff06eefaU,
  0x400f401fd100e05U, 0xfbfd0a0423def61cU, 0x2b0ff4f205fcfdf6U, 0xf6311601302729fdU,
  0xf4f2000bf91be8fbU, 0xbfff8ee814b09f8U, 0xf4ef00f31813ffe8U, 0x9fe080212010f03U,
  0xfa100ffc020107f4U, 0x300e6fdfce002efU, 0xf9fe00fffbfb0502U, 0x2c4e601fa7f0115U,
  0x6f90221fdfbfa0dU, 0xcfaf9fcfcfb01faU, 0xdd0000f70c0ffee8U, 0xf4eacbfe09f1fd08U,
  0xe7f04f2e7eafffaU, 0xf3500dcd14e80e95U, 0xfae003170b02fefdU, 0xf918f20d4805ea14U,
  0xd610fe0ceff81502U, 0x59f009062c1d1406U, 0x48fb00f1fce902f9U, 0x120413fddf10de0dU,
  0xf4f2eff1d0f0fdf7U, 0xebee01f4e715fabbU, 0x51910252e02ffe6U, 0x5060105d302ea20U,
  0xff0f14fdd1d226f1U, 0x7fda04dac713cd08U, 0xcaa60016e1ffa3dbU, 0x1205a01c0aef17e3U,
  0xd161464904e61736U, 0x195e00df40ee4e6cU, 0x81d40e02ffae47fU, 0x1121b61de61d3329U,
  0xf00b04d04912f7efU, 0x31012b2cf642f7eeU, 0x6dd50002b703d0e4U, 0xfdd0e5132b4a243cU,
  0x3f1d8de2416c2edU, 0xae6513fdffd2eee0U, 0x1e1a4f0c56f113e8U, 0xb26f01b090ef803U,
  0xa0503ed03f4200aU, 0x81001a2feffd224aU, 0x42f40007f70024fbU, 0x1ceeff5f7ee0b25U,
  0x12fff3f90a04b5f4U, 0xd62e0b04ff3002c7U, 0x360321fcfe0ceefbU, 0x1104ebe4f80944fcU,
  0x1907d2f40a03d81dU, 0xb00422010a010081U, 0x1efd00fefaf6fc04U, 0xa04f001fb36fb09U,
  0xed2405060e1226f6U, 0x3fe010e1ce6fff5U, 0xf4edd1f201fe8101U, 0xfcf905fe0a103902U,
  0x100404fee00209ffU, 0xf505100ff400fe2dU, 0x270f00f90ef90089U, 0xe20905fe7f09fcf9U,
  0xfdf5f1051e0b0cf5U, 0xfdf18f0e0601fffeU, 0x12fffcfa012b01ffU, 0xaec5504f221fd14U,
  0xf8f8f3f5f9f5fcfdU, 0xf0f5fe0517fc01faU, 0x2e0000180508fdfbU, 0xd14fbe8fad60304U,
  0x1d18f9040ef9f8f5U, 0xe3f1f5f32f11eaf6U, 0x60fd3304f5f0fed5U, 0xb0dfbf6d20e0b10U,
  0x27faeef80d1e061eU, 0x81e9f72304cafaefU, 0xf79f00f50bf70c81U, 0xe02f0fced0202feU,
  0xfc00f202fe02f9f6U, 0x10ce0ff1105f4f3U, 0x1030002011006f8U, 0xf3e83c05f427fec8U,
  0xfafa041aee050cfdU, 0xdfeedf70b050806U, 0x1f0100f9f9fd1102U, 0xfcf7f209fc080707U,
  0xf3ef08f512011bfeU, 0xed0c060f0cfd00eaU, 0xbfb25fd00fe03feU, 0x301ff010a0609f6U,
  0xf605feed0bff01f7U, 0xee0200e5f2fe0081U, 0x88df002519f732e8U, 0xc09d09190f6a18e6U,
  0x538f4e17450db4eaU, 0x3ab2ff2b37b0d621U, 0xd8d2cae89609f9faU, 0xddc4dee7eae20200U,
  0x5e027ff0f602f028U, 0x283d1dbbc7f4f748U, 0xf0c0004fd310f05U, 0xf6f41108fbeda702U,
  0xf1232f11e70afeecU, 0x20cfb0507fe021dU, 0xf2090104f10406f9U, 0x1eb01f4f1fffafbU,
  0x210000c060aff7fU, 0x8fbf7fefbf4f0f1U, 0xe5f900fe14100700U, 0x7e3ff0702ba07efU,
  0xef608f911e6fc35U, 0xd5010ffff5f51fU, 0x4727f02f6f60b12U, 0x1f6f8fbf1f4c7f9U,
  0xf5dce7f810fff603U, 0x2f6f5a70dfd0f04U, 0xf1d00170b091feeU, 0xe53405eae4f816f3U,
  0x30ecf0f20d03fff4U, 0xb022efcd55510f4U, 0xc2040346e504fc0fU, 0x218e2aebefa805f7U,
  0xf107190bdf151efeU, 0x81edef0a78a709f9U, 0x822200e01835d5feU, 0xefcd81ece32507f0U,
  0x6a34e9b862f7f31bU, 0x1f0e0259f1f52a17U, 0x4cf9321210f30210U, 0x15befce898defa21U,
  0xff15961b3e26eb04U, 0x36df2548821631eeU, 0x2a020002ef0e21e4U, 0xcbedfeff08f2110bU,
  0x8100070607eeff08U, 0xf7eb03fb12370dceU, 0x4c090dfd1704f00fU, 0xfaf6be05d4f80efeU,
  0x8f3f51df4fed5fcU, 0xf104fbfee50d0b12U, 0xf61400fbf4fb3605U, 0xeff2a05060c0afbU,
  0x1139fb0ff01be505U, 0x7e3f51e30c9e254U, 0x1819e309f1f6330bU, 0xf713efdf03f52a00U,
  0x15ea1cf1810af2edU, 0x1821f2ec051df706U, 0xf01c00f404f3e902U, 0x2326d701ef0de4e4U,
  0x7f0e2319f8ff16f6U, 0xb19ed10051f1b24U, 0xc31512e908f9ef23U, 0x16f1250e0ef60f06U,
  0xeb2321051b0647e5U, 0x3111fb2e04c8f60dU, 0xd2ec00f904f0041cU, 0x1505f9077f0ced0aU,
  0xdf70604effbf002U, 0x319e40606190a0dU, 0x13fd0319f6060312U, 0x9f7f3fafaf1f9e2U,
  0x60a06fb031c04f8U, 0xf8f6f8f6ec03f5faU, 0x110600eaf5ff0cf8U, 0xf12010edfd0beeedU,
  0x1c1806f500f00b0aU, 0x1acee8fffa201901U, 0xcd04e706ecfc0924U, 0x1ef603d7e418f70bU,
  0x7f1519111e2414fcU, 0xf40015f3ede4e303U, 0x7ff800da2c0ef808U, 0xf7342aed0a170cecU,
  0xe6edde1ecf141e00U, 0xfaee0feb30b1d2f8U, 0xf1f4d503fe1a11cbU, 0xff0d0008f60111ecU,
  0xfee9fbfbf4e3ec0fU, 0x4d07e902fcfe050dU, 0xf6e3000ccf15a7edU, 0x1df0c316f7bace3fU,
  0x37b1bd4f3c3030fU, 0xf2711ce98a151394U, 0x7fee0602f3ef1e27U, 0x2fdfebdbd3f62a06U,
  0xfddbc0061827be0bU, 0x91b9e529dbd112edU, 0xb220028e0b90c12U, 0x7fe0ec0bfdfcef1cU,
  0xb9dffff1c412eff3U, 0xffebf0e4d1bb14d9U, 0xe71f32170209ec16U, 0xfb2d320336101604U,
  0x12f917f9f740fae9U, 0x452801413b16b8ffU, 0x14f800daceea48efU, 0x2dc35310ec74412U,
  0xfcbe43fd422ec90dU, 0x221906407c7fcff4U, 0x7486b11fbfc0909U, 0xf5f5f539621f3809U,
  0x2ff3ed0bee01f531U, 0x584d0dad5006e515U, 0xa4eb00e2020401e3U, 0xb8fb03050404fcf8U,
  0xe0dd091424fcecf7U, 0xff05ecf531810247U, 0x41f0fd071201ff1cU, 0xe4e40402001d0f12U,
  0xef00fbfa08fdf300U, 0x21f9ff1717f80800U, 0xfd0900fce7fcf6f8U, 0xf802ee26fafae70cU,
  0x27d033f2ed1e030eU, 0xf901e7fe0b1e110dU, 0x120cfe030e0a0805U, 0x404ef2df4180a02U,
  0xf0300d881e8ebf6U, 0x3d917f9fd0ff917U, 0x97f00f40206f0e1U, 0xfcfaf902de07fff2U,
  0xf40101f606030803U, 0x3fbebe01106f919U, 0xdfbf601fb15ff02U, 0xfd29d4fb15d802efU,
  0xfffd072b0604f8ffU, 0xaf800fff2fffafaU, 0x6fb00f9f06909ffU, 0xd0016fa080420faU,
  0xef12021001f4f5f7U, 0xfdeffc0efaefff02U, 0xf6f90efefafffaf8U, 0xf401f500f1f5f7ffU,
  0x14050cfb0402fcb3U, 0xf8f4fd1afc0381fbU, 0xff600f60302fdfaU, 0xdd06e8fe7f0101ebU,
  0x5ed01050609f6U, 0x41a98111701f4f8U, 0x1c03020206f8fe08U, 0xfeeb5c00e644f710U,
  0xfd02f9c800fc0700U, 0xc08f8010b0601fdU, 0xf60f00263204f90cU, 0xeeeeeb050fccdfeaU,
  0x24e6f7f5baec15fdU, 0x128f02c4f94af0faU, 0x28f896110f0307d7U, 0x3918fac7befe8115U,
  0x2b18b312381dbfe6U, 0xd1e20ff1f0e605feU, 0xfafb00ff0203118aU, 0xe60103023efc02ffU,
  0x30706fb070b0505U, 0xfa04fd1305f5faffU, 0x20100f5012ffbf8U, 0xfb0f1bfef52e0281U,
  0xfcfcf438fefcfc09U, 0xf9fb010210080af6U, 0x90100f135fbfd12U, 0xf917e3fe02c4fbd5U,
  0xf9ede3fa23f4ef13U, 0xdee40207f2f2f004U, 0xe650590cd80b0afdU, 0x6021af1021f9a09U,
  0x7d4150cfefa2a00U, 0x13f20f810bfdfcf1U, 0x23f50009ffeb0803U, 0xee02ffecff06fcfcU,
  0x150af9f714081405U, 0xebe1012e14300837U, 0x90b1505fefdf705U, 0x6fce8f881fdf8f8U,
  0x210f030300cb0af8U, 0x46f7ff18d4fee2f8U, 0x15020013ef8111fdU, 0x9fc17f8fae9f0fbU,
  0xeb1c061908fa0206U, 0x7fc061afbebff0eU, 0xe6f71c00fbfe04eeU, 0xf5fbfcf8fafd05f3U,
  0x17f703f616f9f013U, 0xf2e61909fe7602U, 0x23ff00ef190bfaf7U, 0x23bbbce8ef031602U,
  0xfcbdfcede5fbe4f2U, 0xf21010f9e918edf9U, 0x2f01f81fcfd07faU, 0xfc853bf73ce4bd00U,
  0xff0dea06d4d81224U, 0xebeb1f0da3ea0315U, 0x21200f6eb0a0d03U, 0xdeedd7fd11b814eaU,
  0xe732d5f4dc0107fcU, 0xc3260ee416b1ddccU, 0x2309147ff5f90dffU, 0xefecd2f200c1f107U,
  0xf8f6a5171248200fU, 0xd7f9fa0d73c400fbU, 0x307d00009561U, 0x6336ffff96c4U,
  0x362500009e67U, 0x48a9ffffe20dU, 0xffffe3f50000009eU, 0x791200007ec5U,
  0xfffff958ffffe50bU, 0x9a630000617fU, 0x315bffffb9d9U, 0x97d60000111cU,
  0xffff016a00000be4U, 0x187bffff85b1U, 0x2aff90000707fU, 0x1080a000066efU,
  0x1251d00006d4eU, 0x2dd40000b784U, 0x128da00004b5dU, 0x3af300009733U,
  0xd7dcffffe828U, 0x364dffffff89U, 0x215d000015c5U, 0x76d5ffffa46eU,
  0x9c5e0000c28fU, 0xd6e00011558U, 0x13ce100002e04U, 0xe02c00006920U,
  0x13734ffffe35aU, 0x240f0000a891U, 0x95730000b999U, 0x22200000602eU,
  0x1c160001090bU, 0x27a0ffff81d9U, 0xffffa1a1000112a9U, 0xb6d2ffffffaeU,
  0x7148fffff74bU, 0xfffff9f30003ad87U, 0xf6c0000035faU, 0xffffb18bfffef944U,
  0x6a1affffe4f8U, 0x17f470001927eU, 0xffff3b2f0002df5cU, 0x51f300002c8fU,
  0x129270000887cU, 0xfffffc6e00011bb4U, 0x4cad0000382bU, 0x51d2ffffc69dU,
  0x7e0400001c13U, 0x5d1fffff371aU, 0xffffdf3800002f7dU, 0x164f100003061U,
  0x52c3000098c8U, 0x2fea00009241U, 0x10215000083dcU, 0xc1f30000a1b8U,
  0xffff7d59ffffe988U, 0xffffd81c0000153fU, 0x1fb5a0000437eU, 0x174200011c2aU,
  0x4ba60000a1c9U, 0x3dc7fffffeaaU, 0xc0f2ffffc36fU, 0x79f50000a7f0U,
  0x2291000047d6U, 0xac75000130feU, 0xdefe7fb8e915e8f7U, 0xec81d2f1e2fd1cU,
  0x67f1b05170b01eaU, 0xd3071a7f2105110aU, 0x1106120aed98ebfaU, 0x5110a01f902fb7fU,
  0x200b0403fffb7f1dU, 0x100df50afd7f2d08U, 0xf51e0b207bc8fe81U, 0x19fd067f1af61f0aU,
  0xfc156e16e881f409U, 0x11f5f9df8bdcfd1eU, 0x81dffddbfd167f1eU, 0x27085b1dfefafde5U,
  0x1fc00061c10037fU, 0xe91af1ef1b8af77fU, 0x101d809f6957ffaU, 0xf3e9ece57feff6f7U,
  0xa3f0f4d9f41f7f1bU, 0x1c14e49d581e4f1U, 0x90f17f04f9010369U, 0x81f603e502f4000cU,
  0x281d81f408d00a0fU, 0xfae8f30435f5c069U, 0x481ef4d6f2d07fd5U, 0x11f28181c7f241aU,
  0x167f0edebeeefbd9U, 0xf8fbfdce7fffe503U, 0x7fc81f107fffcf6U, 0x92f07f01ff010202U,
  0xee7fed050ff3fc10U, 0xd8ffdafbe9fd1e95U, 0xfdf5ffed04ea81U, 0xe50501f901f77fd7U,
  0xf7207f21f0a8d2f0U, 0xedd5f5f77ffffeeeU, 0xe201ed81dc01f903U, 0xfee395e2247f2207U,
  0xfc0af6ed85e5feecU, 0x7f1f040f02147f20U, 0xeb197f16030006feU, 0x2e8f300deffe4a4U,
  0xefe8f0f103f27ff9U, 0xe0110ce07f018924U, 0x19fced7fea971bfeU, 0xf317d7bb7ff9e214U,
  0xf1e77ff6f8dcf1edU, 0xd87f1ef21801f8e5U, 0xe47fc28cffefe7e5U, 0xfce790e90b3b40bcU,
  0xf602091f7f1ff4f8U, 0xf000ebfe16810877U, 0xb4f8d9f20b7f02f9U, 0xffb4bdec7f7ffdcfU,
  0xf4ffed7ff800f6fdU, 0xf0d381c8efdfedffU, 0x7881f70bfd01fae0U, 0x7f2b0b26120a0203U,
  0xb5f3030f0d0c1104U, 0xcea0207fce8e87fU, 0xecf813eb017f92feU, 0x2fbe9f5de7ff3fbU,
  0x204fd047f16ff1dU, 0xf4fffc7f05030405U, 0x7c0ae9020d7e8c03U, 0xf8103010302f581U,
  0x8051e7f24000504U, 0x7ffff311e381ddebU, 0x72e0515e500cce1U, 0x210cf97d0e97f1cU,
  0x1de8fe178cf57feeU, 0x19191d0d81001e1aU, 0x1e87e08810d03efU, 0x90f7f230a140915U,
  0x7fcfbd07fcfd020dU, 0xf105197f191beef0U, 0x17ff1203e390e106U, 0xfcf50800f700f57fU,
  0xd5120603000481e7U, 0xb90de70de881e312U, 0x1f11b8385b81283dU, 0xe9f9e281cbfdd2ebU,
  0x7019a7ff8fefdfaU, 0x681fd01ecfaf9e9U, 0xf500df85e8fd03f9U, 0x810f01f1177f190aU,
  0x117f1314fbed7f05U, 0x7cf390f5fde9faU, 0xf410d7017fdc8581U, 0xee0002d57fd90af0U,
  0x208f581f306f609U, 0xedd97f1101f4fa03U, 0xd17f22c6c0e2f9e9U, 0xcbf2fcbbfafa1d04U,
  0xf6f9f0fc0f7f13f1U, 0xf7f2fbfbe9f5d67fU, 0xa5a167b1dfc81f7U, 0x7c5f76d91a67fc6U,
  0xebe6f5e27ffbf6fbU, 0x3f3f981effaf1faU, 0x1cf3977f05de13f3U, 0xf87ffcfc00fff1ffU,
  0xfe8700f905fef5feU, 0xf401f40012fcf07fU, 0x197f2901f204f27fU, 0x1d23f3e7ead49214U,
  0xd713131c107f2d02U, 0x427f1648dda9e498U, 0xe6f0d9a62e005c7fU, 0x3f57fc10104fbedU,
  0xffe1b6f190005U, 0x7ff504f802e681e6U, 0xdfff9ff0af903faU, 0x47f86edfaf2e67fU,
  0xbfed0afa01fcca30U, 0xfff3dee30281f2f6U, 0x3f1fff981e602f0U, 0xd8efc981c3f6bee6U,
  0xfffe93f5077f0d00U, 0xeb81d80ef00bfeefU, 0x7fe1fbebf906f104U, 0xf6ff7ff8fceefbdfU,
  0xf0dcef020e05f393U, 0x81f500d6fdcc81c7U, 0x1204e1cc74a03f5U, 0x6fa09ec7ff802fdU,
  0xf3fbf37ffafa04ffU, 0xdcd81ae08070dfbU, 0x81f509fa040b0bU, 0x81fafbe20d040701U,
  0xf302f80102f1fb06U, 0xfdccec01f6ffef7fU, 0x2fd05ebfbf87f07U, 0x1aee02ece87f0dfeU,
  0x1116140c7f210537U, 0xe0efd37fecfbe5ffU, 0x10017f0e1512e707U, 0x7f8ff20ff6fdf105U,
  0x7f1805130811f3f8U, 0x5f608f20100fef6U, 0x63006f501f5ff7fU, 0xf4040b1f14fc7f1fU,
  0xdf9ebffe57ffdfbU, 0xeb050789f87fea09U, 0xb37700001212U, 0x393ffffd3b0U,
  0xffffe9e9fffff939U, 0xfffff66400002be6U, 0x1f9fffff47aU, 0xa582000006d8U,
  0xffffff51fffffab4U, 0x8b800000273U, 0xffffff110000073aU, 0x4dae000002b4U,
  0x4dccfffff723U, 0x1081ffff6fafU, 0x40a600000b68U, 0x1180000017bU,
  0xffffec270000576cU, 0xfffff07e00000cb6U, 0xadd000062adU, 0xffffe5f5fffffe7aU,
  0x139400000681U, 0x492000000fdU, 0x435d0000099aU, 0xfffffe5200002d04U,
  0xfffffffefffffcebU, 0xfffffc48ffffeaeaU, 0x8e9e00002811U, 0xffffea5700002019U,
  0x15cfffffc40U, 0xffffee1200000bedU, 0x16ffffff873U, 0xbbd000057a3U,
  0xfffffb36000020e5U, 0x2ce8ffffffe6U, 0xffffe085fffffbdbU, 0xffffff8e000018bcU,
  0x40b8fffffefdU, 0x88600007d34U, 0xa2e00004e77U, 0x190000053fcU,
  0x4eafffffa53U, 0xfffff0f200001442U, 0x1b4a000036edU, 0x90100000023U,
  0x28b900001242U, 0x16b700004ba8U, 0xffffffdf0000926fU, 0x8efffff36aU,
  0xfffffd7f00000336U, 0x6c6ffffff9fU, 0xffffe60600001c0aU, 0xffffd5f40000013eU,
  0x38ef00001f8fU, 0x818000004d54U, 0x22f0000b4ebU, 0x243e00003ddeU,
  0x4c0a00007a4cU, 0xfffff22400000364U, 0x6c9f00000b46U, 0x5118000034cdU,
  0xfffff0e4000006ffU, 0xffffdd01fffff9a3U, 0xffffd542fffffd3dU, 0xfffff3fe00000a7aU,
  0xffffd944ffffd120U, 0x2ac00000597U, 0xc148253fecc380eU, 0xcce9d5995ff9fce1U,
  0xffeef5090f130ae3U, 0x104f70b1307e916U, 0xf1faf1e308ff09edU, 0xee2916def70c020bU,
  0x254e2ce1f050f1cU, 0xd40803f0eff1c7c7U, 0x15bddfb412f721e6U, 0xf4ebf2feead81727U,
  0x1d07f4020106f714U, 0xd702c652fecddd2dU, 0xdb291d4681ebf6e3U, 0xf6eb6339deffeadfU,
  0xf700fe570ce28d55U, 0xecd4f7e4d609db04U, 0x1402e7380b1b46e9U, 0xf50ee60d44ff36e7U,
  0xf5fa0f0813f704faU, 0xcf90feae90115fbU, 0xfb030003eafe1aeeU, 0xd34f0030c04f608U,
  0xdb12f5ff0a0b05daU, 0xf6f6fd0af6affe20U, 0xa26fde1ec0706fdU, 0xf20603f9fd05d111U,
  0x2fb0506fa13f224U, 0x6f8ef7ffe11d7d4U, 0xe3f31dfbbe08ccf8U, 0xa403c73fa0fd1bf0U,
  0xeaf50d2ce710214fU, 0x808f823f50bdcf3U, 0x13fa15fcf90efe16U, 0x1700f6f6f1e41a04U,
  0x3ef90111f6080fb8U, 0x481130cf3e4040fU, 0xf3fffad6f60c6d02U, 0xf17ee0d0dcffc09U,
  0xb04fb00f2feeaU, 0x27d4f101f5f7f6f5U, 0xee000407f105fbf8U, 0xfc04f1001e080500U,
  0x1d05d12af10ef903U, 0x4f9060dfb090b19U, 0xf0f7271e0004fcfbU, 0xa0ff9110ff523eeU,
  0x60c1209ff20e7ffU, 0xfad4fff9020eff2dU, 0x2f70a13f953b3fbU, 0xeff40f0f360011deU,
  0xfc01ebf7fb050003U, 0xf9fd08fc0107e2f7U, 0x6fd8102ed070607U, 0xa0c071501040afcU,
  0xf614fbea0800f111U, 0x50d0318fd0f0af3U, 0xf50b52f506fbfc03U, 0xee0fe00fce414ffU,
  0xfcfbfe06fc08f6fbU, 0x520040cfffbec0fU, 0xfc120c051807060dU, 0x904090518fe05fdU,
  0xee0900ed2d06041eU, 0xe1f0503ebfacb0fU, 0xee0033c24fef9ffU, 0x1c2ddb8b0f25c7U,
  0xdfeed62b38350f4dU, 0x8f539ca080cf50eU, 0x3011fe5c070a7fdaU, 0x29fb2a0f3c1e31f8U,
  0x183e38e8d0f8afabU, 0xc22916312fec1dc9U, 0x5d6d3dbfc03e531U, 0x509ed2129890cc4U,
  0x2cef0814223cbb0dU, 0x586c16140003fdf4U, 0x2b0ff3fe23e747U, 0xe7261ae116f736e1U,
  0xfdf84733e1f0f502U, 0x2a1a00e5c914043dU, 0x1d22ff35f7fc1816U, 0x100306012df81475U,
  0x23b241d24000b05U, 0xffffecf6f9fc69edU, 0xf423ff1028160fdcU, 0x13f3f703f80c040eU,
  0x40002e6ecf42405U, 0x6060d1616c925a0U, 0x21cc5914f8fe1d1aU, 0xed03f207f9170329U,
  0x6e9f1011106e9e3U, 0xfbfffae004fbf7e8U, 0xd4a803fa19f1f1e7U, 0xe8fce8fde27b1100U,
  0x20b0be47f442f1fU, 0x29c8092ffdf605f6U, 0x130cd407fce7f7eeU, 0x34d4f6edee044b12U,
  0xfa12ea01fdedebfaU, 0x19fca6eaf60dd1edU, 0xf4f8d7eefcf1ecfdU, 0xe3fcf5030602ed03U,
  0x5280f2703190204U, 0xcdef16b4ff0b1af7U, 0x609fff801fb01fcU, 0xe63d01f7f5ec33f9U,
  0xf7f816140702021cU, 0xab14f616f70314f5U, 0xffe0410be204167fU, 0xe90516296204fdeeU,
  0xf6f808bddd1104d9U, 0x1007fe093105ec06U, 0xeb1696f2391bf9dbU, 0x25ecfe2bd505db15U,
  0x6e5e9fc010ffee9U, 0xe70ce6cae8fdefdcU, 0xfcfe2cde04cae2e5U, 0xf4faee050a12fe51U,
  0x1fd0e4ecfbf2b2feU, 0xc5f2ea32193702faU, 0xfa39d61701030e07U, 0xefdeeefbfa0807ffU,
  0x7fd80bf5f534f315U, 0x226fa3ff940f528U, 0xb223ebd000e20cfeU, 0x10f71ae426f9fe16U,
  0xf0ad0500021ff977U, 0x19d8f7f9ce0204eeU, 0x3f4f1f2ba24f4eeU, 0xed25ed3f2f031546U,
  0xfb1bf6ed1509fffeU, 0xf6e8e1f113080413U, 0x1dfbd5fb0ee80c00U, 0x2c011191d1807f9U,
  0xf61117300b030dd8U, 0xdd1cf2f0e6e81ef3U, 0xf7efdf03faddfcf1U, 0xc50dfc0be1fd13f8U,
  0xfecd11e4f51de023U, 0xf129007f09161623U, 0xf8160ade02ec38ddU, 0xd603febe0cfae5f1U,
  0xe9f0c29a17f0cf07U, 0x25f30f2c10019106U, 0xf9f00a03ea0c64fcU, 0x511e5f028f2ffd9U,
  0xfe020ae4d2e9dfebU, 0xffcf016fa0ad465U, 0xe4fd31eb02f30ef5U, 0xfd02f1f1ddfc01edU,
  0x9151efbf91b44e1U, 0xf7eee71bf8fb2832U, 0xfd7ff007e20511fbU, 0xffecf6fcf71b100bU,
  0xfd0be3fcfbe1f9e8U, 0xfeec0d1402f8e8bdU, 0xeeb70601cbef1ec7U, 0xf5f5a81fd502e4eeU,
  0xf00af72e3e114f07U, 0xffff0214fa0217efU, 0xfef70707e9eceffcU, 0xf110a0103f905f3U,
  0xfc16eeff1501f8feU, 0xf700170b0efef703U, 0x70c0112f9faff01U, 0xee000a0c0bf4e703U,
  0xf5220b0cfefcf71dU, 0xf712f70bebed01e4U, 0xf681f3f3f7f90707U, 0xefaee0afaefea07U,
  0x180bff3cf80900feU, 0xfe0deb29f7f4f634U, 0xf62823071ff600f7U, 0xfdfd08fef000f3fbU,
  0xf9f9eef40c01dbf1U, 0xafff30cf1fe0b06U, 0xf10213ebe2e90502U, 0xfe0ae9dc2e10c503U,
  0x4060aef0efbeccfU, 0xf50f0f400111e4d3U, 0xeafe39d60704c5e0U, 0xae2ef01fdf3f1f9U,
  0xf300f8d60bed33f9U, 0xf9ff05d20be60a1eU, 0x38130adc03010506U, 0xe4e508f90505012bU,
  0xf309ff1f1cbf16edU, 0x401ce332c111437U, 0xe9273301dbf4ff09U, 0xe8fe1bcce9ed81ddU,
  0xe42711d328fac006U, 0xeffefb18faf0cfe8U, 0xf5b5ec7f000114e6U, 0x17fa090417061209U,
  0x707eeef1503f3f9U, 0xf9ff08030c180ef4U, 0x5f9fbf1eefef600U, 0x163205fc02fbcaf9U,
  0x1000100a0113f8edU, 0xfc020305f913fbe6U, 0xf0f409290ffe05fdU, 0x1bfe0309f90d02f9U,
  0xe00170dfdfe03e3U, 0x9ed16fdf9f2111dU, 0xdd07e6f4f3fd09fcU, 0xefee09eb12042300U,
  0xf2feffee080a1ec4U, 0xffe8f505ee040d08U, 0xf901090621fafefcU, 0xbe10fb0f03e016efU,
  0x8e08d601f52926fcU, 0xecaee3f50e04f1f5U, 0xf0b2652f5142fdcU, 0xf301160d05f71219U,
  0xe632fb1f33fbfe09U, 0xdb051304c4210e05U, 0xde1e07eaef05fd0eU, 0xe1f1f0cd6080b09U,
  0xe2107f3ae200d327U, 0x4050b19f60517U, 0xf6281b2200de18f5U, 0xe405fe27e3faf9f1U,
  0xb06f42eecf2e13bU, 0xfefcfceb01f6f8f6U, 0x39d413d613cb381eU, 0xd7f63aeed624e781U,
  0x1b13bdf7ea06e719U, 0x1afd1fe70519a7dcU, 0x300541eae70fe4e5U, 0x100eb3cd9f80b08U,
  0xdb08d1c53a08fe0eU, 0x91fdaf23dd937d1U, 0x1f0d3c020bf7ee0bU, 0x4fee1e1210e00901U,
  0xebebff2c38bb0307U, 0x2bec35efe7edf021U, 0xf3e9cf14ea10e21bU, 0xe939f59526fafee7U,
  0x34080bda28f33906U, 0x201cdf4df0108e9U, 0x7e8e9faf6f7f5f1U, 0xf3ff1f47f2f8eb2dU,
  0xf9f710150af610edU, 0xdb0407ed03fafefcU, 0xe907ee10ebf90025U, 0x6090cf2f4fcf609U,
  0xd903f0fdb9f7f2caU, 0xf004d81d1789fe84U, 0x2a0102ae09f6bbfaU, 0xf7f6f8eefb640248U,
  0xec190f1904d6fd15U, 0xeefa06f0fad8eed9U, 0x15c9d3f31ffeea16U, 0x2bdbd5e80fd138f0U,
  0x3f04064e29810a18U, 0xfda475ef80b18fdU, 0xf32e2b511500d5efU, 0x2a03ebe6fbc03d18U,
  0x2edbf8000319d9U, 0xfff833ddf7d827dfU, 0x30087062fe50245U, 0xdb1ceef5f50626e4U,
  0x220b9cee0ec276aU, 0xcaf71019c83a08d4U, 0xebd5f72306f7f5faU, 0xccfdd20902cef10bU,
  0xe50419d001dc19ccU, 0xf4280a81fac3c9f5U, 0x452257f440e0ae2bU, 0x5012e944b32ef2feU,
  0x1e0c0633f4ec1c0bU, 0x9d50efdf8edf53cU, 0xfb2ae7e51410140aU, 0x2b06f7e91010051bU,
  0x3f605ef1efbed00U, 0x30b0003f910fff9U, 0xdef8f40a0d13fde7U, 0x40cfd0603031600U,
  0xfa12010d05efea46U, 0x1d0400fcf61007feU, 0x20cfa1505fffc0bU, 0x802fffe080efa11U,
  0xafcfb1607d4f715U, 0xfee405200ab5021eU, 0xebf0faf0c70a04f8U, 0xe8fc26ff0ae2e513U,
  0xfe03f37f27cc1e36U, 0xf4df03d40df8150bU, 0x19170e1c4400f704U, 0x4fdfdf4fb180705U,
  0xdeaf81ce903175dU, 0x1121f7f7f5fc03f5U, 0xfdf7ef78e42929edU, 0xa0afe27f40bf3eeU,
  0x8fdfd060d011215U, 0xf2f424f214f3faf6U, 0xe911ffdb5c03e5ffU, 0x3f93efa420c040eU,
  0x1fd10f72e0efee4U, 0x2d44ad60af5f4eeU, 0xf6ffedef065df809U, 0xc10e51110007ffbU,
  0xf40037d203e512dfU, 0x10406f7f6ff20f9U, 0x6d92581ff0a2a09U, 0xe939f1dd1a230809U,
  0xf5fc091024f72508U, 0x21f8eee6e6f53904U, 0xfb04291757e1043fU, 0xebcde9ddef0cf1f2U,
  0xbb1946e6ebeebe47U, 0xfbd748000500faa8U, 0xe7ce360f14f5f506U, 0xe7ee09ff1a122400U,
  0x7c000c1911071e70U, 0xf0408feeddb2c12U, 0xf4d126d913fc37edU, 0x2cd09edcb1907f6U,
  0x3cf0fa5ea084c62U, 0x1143081f1e1307e2U, 0x3b407561be9a304U, 0xde3c2ef9dbfe21f3U,
  0xef205070b1b3e28U, 0xfb0d019d360905f1U, 0x313dcb30d1122aefU, 0xfe6401b2905040aU,
  0xc8d53c15f60fa2f2U, 0xcb35f70427c700e6U, 0x7c1e40619eec032U, 0x32902381af711b4U,
  0xcefebbb1175d761U, 0x2627ea3c09ec231bU, 0x1326dfe41d1ffafbU, 0x1e3081f4f3e925beU,
  0xf6154402d4e3a20fU, 0x4fd5cde3e10ffc38U, 0xd03cad0fc180d04U, 0xf4f531e2f0fe5716U,
  0xfdec111df0261606U, 0x4002fea361d0f26U, 0xf1020800d4e60140U, 0xc15091819e5ef1aU,
  0x411605162fe41cd6U, 0x4f1518baf0dadfdeU, 0x9db1af1ff070f0eU, 0x3821230b2410c814U,
  0x1c1ce74e24ffd00aU, 0xbe21cc034f61aefU, 0x39081210be0c0217U, 0x1e3cf1ff2701060fU,
  0x23ccd0811d0f1701U, 0xf6ca1de5e212f9d8U, 0xfd625eefeff0d0bU, 0x2bff117fedfcfd0fU,
  0x616f40b2603f2f3U, 0x70827f0fe00200aU, 0xf0f4ec13070d0cfcU, 0xfb1a00d7ff0f00f8U,
  0x4ffb0aeed8fcdd37U, 0x190500ef05dff435U, 0x10e90fcc03fde8faU, 0xfff2f506fdd9f6fbU,
  0xdef6031001f50bf3U, 0x2f5ec6cfab9fef7U, 0xf601f93b01012aU, 0xbb0311f4390015f8U,
  0xc8f415b205250d32U, 0xfbd7cb0c0dfb0bf2U, 0xfae75604ffc916f4U, 0xf2080cfaac0410beU,
  0xfa0bf8062304fa13U, 0x6f614ec0c051b09U, 0xb06320cecfb07ebU, 0xefff01ff03f5f703U,
  0xf7e30f0afaeee626U, 0xef0c0a0208e40ef2U, 0xfdefdaff04ffff0aU, 0x1101f9fbffe6ecfaU,
  0xf8fb0f03fb19010fU, 0xeafb08fe06e5f10dU, 0xebfbe8f8fcf9f305U, 0xfb0bf102fe03021eU,
  0xf9fff7f432fac406U, 0x7fdef07810303feU, 0xfb7ffec8d7d31a1dU, 0xf1c2d8d021c80c23U,
  0x91c08f20ee0e8f0U, 0x611d42fbedf05fbU, 0xb3c333ea10deeb13U, 0xffffd5dfd2021007U,
  0xd104b7fd3ad0451eU, 0xedbdfce7e41d0b1eU, 0xf7eb09cadcfde7d8U, 0xe7fdefc5e12efa40U,
  0x2d06f700f1ed10e3U, 0xea3fd8c3fa09e742U, 0xe0ef01005e3fdfaU, 0x34ee53ec0a20e215U,
  0x2800d1ec0f071f60U, 0xba17181b1cfa28ecU, 0xffcf17f609e40a81U, 0xbb13f9052d040f03U,
  0xecfee4f6e1d5ea0dU, 0xe00e50cec01f3d2U, 0x14032df81615f90fU, 0xf428f51704ebc60cU,
  0x2540de200a8fdbfU, 0x2ffc0416fae6f3e8U, 0xd0f213ed021207fdU, 0xc6f1e90c03e0080fU,
  0xff1409ce1f070a05U, 0xf602f44decf3ea1dU, 0xf538051afa03e709U, 0x1010cf8f2104200U,
  0x16fd0434fbe317faU, 0xf3dc09f513eb1015U, 0x14de0dbd0f4f7ffU, 0x55de06c911001118U,
  0xfa18d303fd0b1302U, 0x17eefb00fc0afe12U, 0x417ff0138f5f3e4U, 0x13f400ff18141126U,
  0xd1704e701037f73U, 0xd0a0c10e920eab9U, 0x15f601b10afefde1U, 0xee0afd13e744e742U,
  0xafadf1bfe23f8e8U, 0xeefe024110bdf334U, 0xfdd00905eff3f9e1U, 0xba16040f03fad70aU,
  0x70efc6f1b05d33dU, 0xfac10df60e06c905U, 0x1fa0d08eefdf8f2U, 0x41fbefedf5f50d07U,
  0x1505f0fefbebf65cU, 0x57ff805ff061605U, 0xf902010503e8caeeU, 0x1000f300f41a02faU,
  0xfcf5fffdfdf20ee8U, 0xbf4fcf80c0001fcU, 0xf3020c04f2020601U, 0x4fe0affe7030ffcU,
  0xfffe38000b210a01U, 0x5ee031b00fff60eU, 0xe0e009ec03d903f8U, 0xea41f6f814f10201U,
  0xf3ec04f60211f915U, 0x8f2f90210050207U, 0xdfbf7f9f905fe5aU, 0x18050407fa1401fdU,
  0x402faf4f9a001f9U, 0x4f509fe0201faecU, 0xf118f9040e04faU, 0x200450404eb090dU,
  0x213f9f00a5c0f15U, 0xf70a001df4f90109U, 0xe5fcf60303db04f5U, 0x113f9fb07feec03U,
  0x19e7f815ff060801U, 0x1813fbef18f60ff6U, 0x3faee0df1f90305U, 0x3060ff9f6f9fe00U,
  0xfafa04f904f602ffU, 0x1c170607f481faf4U, 0xfaf71a0e0c239ffbU, 0xe90613f60b000ae2U,
  0xf6fa03bafc0b01U, 0x305fff0120a30e6U, 0x4bc0303fd0405U, 0x1efd08f717f9f702U,
  0xebf4e8de0201e3edU, 0xa0102da0529e7e7U, 0x6f0d8f302fbfa03U, 0x530f4fc04fe00ffU,
  0xfe0ffd07fd06f9eeU, 0xf4050d1f050fe7e6U, 0xfb10f1f81302e8f8U, 0x10fdff0d1df6142fU,
  0xe1fb0cdbf101282cU, 0xd04ede481f6ea0aU, 0xf06ee0009f00164U, 0xc9ee24de0805d6f6U,
  0x1826d301d8fbd8faU, 0xe91532f701e3f6eaU, 0x80e2beaec19e8f5U, 0xfafbf0fe00111811U,
  0xec50220def0bf709U, 0xf00d042c170d08f9U, 0xc21be70feff5e906U, 0x1204f10612d100f8U,
  0x1024c00e7fead101U, 0xa00100217e4f917U, 0x130a08fd23fbf50dU, 0xf1eae90ae0ea13feU,
  0xd7e944dcf60dee3fU, 0x20011bfb1d03f2U, 0xfb40d007b4ffef14U, 0xe4f9d3d3ed0a1f07U,
  0xfdf13906f1f20cc9U, 0x2100301ec07f317U, 0xc4f501b523f48102U, 0x1b16ec16fd0a20fbU,
  0xf033f206fbea0218U, 0xf9eae2add113f100U, 0xe24affefaefb0200U, 0x1508fbf40216131aU,
  0x211f21f01052204U, 0x511daf10ff1f3f6U, 0xea05f10c24ccebfcU, 0x291817bf1bf29f20U,
  0xfe0304a2ff140913U, 0xef0eeb0011e2f7f8U, 0xb6cff81cf609caf2U, 0x2aeef5ec13f1ad12U,
  0x273ad755f30d0404U, 0xdf2c4da11fe130fU, 0xfbef95cad90ceef3U, 0xf5fcfd182e0005edU,
  0xe215142e20f8e914U, 0xff0ed5a704f3f7dfU, 0x152f9e0c0d06f209U, 0xdbe716ff1ce224ecU,
  0xf54c0e3d4007fbfeU, 0xf2e2df1509de3507U, 0xfe26baf2ef1621deU, 0xce38fb8126f2f007U,
  0xd2f8fabfbee20f0dU, 0x2c1b01f9fecb08U, 0xe5e907fec8a4ee02U, 0x632e25e456ffc820U,
  0x4f22ee52710e401U, 0x11e81ce223fee309U, 0x2a291500e4f5f8dbU, 0xeebd04f12ae90d20U,
  0xfc097f63f329cf22U, 0xd019f023e18ae997U, 0x13f9feec22fae40bU, 0x1520fb15f6d31500U,
  0x320ff0eeb35f5edU, 0xe017dc1ed8dc17daU, 0xc035d7ecdc0b5cecU, 0x1d0ce6d8cb0bcc0dU,
  0x36fde6192ee9d1b2U, 0x2431381517190312U, 0xafefafaf8fe0181U, 0xfe01040309050706U,
  0xf60200ecf115f500U, 0xfa03f502f3def934U, 0x193106f8fd0bf308U, 0xefde5ff0c0c0420U,
  0x811050807f710faU, 0xf70308dffffff110U, 0xfa00f6f6ffa80218U, 0xe8fe04ff05052300U,
  0xfc7010602f1faf9U, 0xed0a08fc0f04ecfeU, 0x7fefffe00070602U, 0xfc0d00fc0cf603feU,
  0xf9f306f6fafe0405U, 0xfd04f306fd17fff0U, 0xefdfea101506f62aU, 0x2304f5bfe5fd05ffU,
  0xfde80eef0702f605U, 0xaf4fffbff02fd17U, 0xef5fef9080710f1U, 0xe0e09f50d0af903U,
  0x30409000fe0cb49U, 0x1810eeeeff99013bU, 0x121b06e503020407U, 0xf4fcf90cf9c815e2U,
  0xfe04f207e619f4f8U, 0x160b0a810eba0610U, 0xebe9f7faebfd0310U, 0xd60804e324db1cfcU,
  0x50d1c430623e459U, 0xf6be070dfdfaf211U, 0xf1ac6251525ead3U, 0xcb9800ede3f818bbU,
  0x14ed290eb0001933U, 0x121610dcd7023806U, 0xe9ecff50071e1f59U, 0xa17e11f40f623e8U,
  0x33f28af0c3eb31ceU, 0x25cf172a172912f8U, 0xf7c8370cfdf1ede4U, 0xf8ff1ae30eeaea12U,
  0xeffe2d2091d1725U, 0x37ff1881001ac1e4U, 0x4ad4e1d6b8119ceeU, 0x1c28f64b0f3e4cebU,
  0xe3fc5e28b91e293aU, 0xeccae61bc6e315f9U, 0x36f9eafd08fbfeU, 0xc60609d0ecf1fb0bU,
  0xddf130912fe07feU, 0xf70c0410040a0cebU, 0xe018fa101ff60406U, 0xf9e501f611fdfcf0U,
  0xdf3eef2ef00f3cbU, 0x50ffb0ffc030704U, 0xfbe905eafe08000bU, 0xf7fffb1cfddfedfcU,
  0xf8f9f8e5072bfcf6U, 0x2e4f0d6ff25f013U, 0x18fa0a0e02f8f200U, 0xec02180cfafbf8ffU,
  0x8fa1702ffe8f3U, 0x107f12f5f104020fU, 0x21f82027f111020bU, 0x48e1ec11d901fbf7U,
  0xfff3bc1eec00fb0eU, 0xffd17ec0afee313U, 0x9071820fd11fa3cU, 0x2180100fa3138U,
  0xd8d9ee06e4fc10ddU, 0xc716fafe1c0cfea2U, 0x4c46d1d70504f906U, 0x71ef4fc058111f2U,
  0x502f308fdfc1902U, 0xf71a1a3c0dfc01d5U, 0xb61307230e0d0003U, 0xc803040909ed1bf9U,
  0x52416f7040ed644U, 0xf54a09061d070427U, 0x1604e10a1004edeaU, 0xd1411af00de1af0U,
  0x4ede10a0f241af5U, 0xf0fd00ea280b0cf5U, 0x2c04e607e540f32bU, 0xfee082b42060306U,
  0x716e8d82205dd13U, 0xa509ff15d5d6f8e5U, 0x1be5f80a08fffee6U, 0x807ebf7e8b239fbU,
  0xb9810be6251c0528U, 0x37f808db09f22746U, 0xa0cf334b914fd0cU, 0x1d21ff06dd10fcdeU,
  0x12030de302faf33fU, 0x1b031208ddf3ed0eU, 0xe80fe40acdd3d4f5U, 0xbf790d1301e926ddU,
  0xbfef6ed8820e6beU, 0xee0a0beb201703c3U, 0xe419b513e3dcbf05U, 0xcdd2ffca12efea28U,
  0xc2ccb5fdfacc320aU, 0xe52ceef102d2492eU, 0xd59801faec06ce4fU, 0xd62e1148195e29fbU,
  0xedc6fc0c05dc0310U, 0xeaee97220123605U, 0x1ebfc6a9fde128f3U, 0x12e8b135bcdde3cbU,
  0x98f8d456c6f59e90U, 0x621f8104b5c0b2e8U, 0x1f41108110efdefU, 0x1ce9f40d020c0209U,
  0xf816fc0006031118U, 0x3040a0ff4e3fa34U, 0xcec90d0efe001305U, 0xf41307130ff70d01U,
  0x715fe07fd0714f4U, 0x11f805fa15fcfd04U, 0xe112fffc1304fae8U, 0xed0713eb1d0427f6U,
  0x1c81f60b21f5fbd6U, 0xf3fa05fdfcfd0718U, 0xfafeebf60f10021fU, 0xe207f5f0ec060a17U,
  0x6fb050b0804ef25U, 0xe7f7141108f00ff5U, 0x4ce03e8051d1a18U, 0xf7f0103ffdfadfddU,
  0xd000d0868fef900U, 0x8fc02f0f4ee0b0bU, 0xf9fb0ff7e0f10c00U, 0xe921f70cff0bf7fdU,
  0xff501030f07f52bU, 0xfbf4f7f6eae0ee1fU, 0xb3f09fb08fe06eeU, 0xa0201fe0bd8fafeU,
  0x1eef9ee0711f728U, 0xdddeb7febc50211U, 0x10270b02e8030f05U, 0xd2fbceffde1d01fcU,
  0xe8ed00c0d9f11425U, 0xfaebf30d00fff90cU, 0x2030513040101fdU, 0xe400fdfaf7fd08ffU,
  0xfbfe0006faf80304U, 0x4fcfbfbf605fef8U, 0x1fdf9fafcfdf505U, 0xfffe090affU,
  0x3e500feed21fc04U, 0xdf0efc0102f70402U, 0x603f9fef9030102U, 0xfbf301f7f3fe04U,
  0x7f02fdc6fafcdff9U, 0x6fa01f1f8fa07U, 0xdff09d205f1f805U, 0x910000501fe0200U,
  0x5ee0019ff07f0fdU, 0x51105f80007fc2dU, 0x10e3072ceff1e3e4U, 0x218d3f7f11b19c7U,
  0xfaf9f605e1f50320U, 0x7ff2720e502072dU, 0xe7db2e1801112c24U, 0x64bf5ebe5fcdcf7U,
  0x20fd1cb0f060cfeU, 0xfaece701ff09eee8U, 0xd028051107f5e9U, 0xeaed11f2100ecfdeU,
  0xaf31c18f6fde4f9U, 0xeffb23a0fdfdebf8U, 0xf0f63c06f4140bf6U, 0x29fe473bccf7070fU,
  0xf00e67fdd08401bU, 0xf5d500e95ff7f0fdU, 0xf13d80410f6fb03U, 0xbf00301dafedd11U,
  0x606f001fefff0f7U, 0xeff0cfc000afa20U, 0xf8058cf50d000008U, 0x64e80406fc01070bU,
  0x1309e717faf20c0fU, 0xf4080c2bf9fd1af9U, 0xfd06dc04f3090007U, 0xc04fefef8dfdffaU,
  0xff0afb10f003ff09U, 0x313052df60a0710U, 0x5e71f090bfe2c81U, 0xeef622d74dfd05feU,
  0xecfe04cdce1103f5U, 0x11801073208ea10U, 0x5dcd4ef1723f620U, 0x2714052232d0e059U,
  0xf802ea037e090705U, 0x1fb03ec0701d8f8U, 0x14fdeafef50607U, 0x173703fbf715ff04U,
  0x1001612ef6092626U, 0x1712f8fff5cefb32U, 0x1731e0f9070d0b21U, 0xf006fe1107000feaU,
  0x1702f4170400f80cU, 0xda03fd32f5e0150aU, 0x101018f10e0226efU, 0xe3080216dff00aebU,
  0x1209fe81040ac9eaU, 0xfff407116b0bc607U, 0xfaf3feeae3f50c0fU, 0x4ce2eb08fee00ee5U,
  0x541510e9f5fc392bU, 0x2c1ce4db02e0e411U, 0x1607fd23f61420U, 0xf80813e912f4ed26U,
  0xd455121f0023e905U, 0x14fb101005ef0a10U, 0xd3d3f8fdf5bbd319U, 0x18eb0d050ff710f2U,
  0x1e030881e51dfac3U, 0xefdbf5dc1adb05d0U, 0xed0f09f4e7021becU, 0xf7f42c201a0104fdU,
  0x6ddfe0908e201e9U, 0xf71800e9f405ea1aU, 0xfae12b040d2f091bU, 0xfe1e051b7ff1c3edU,
  0xd0ad104e82810ffU, 0x80619f711fd2c1bU, 0xf4ecd0fefcf9ef1dU, 0xdb1e18fdc913fddeU,
  0xfcee0ff4df1406e6U, 0xe008f0f4e1f4e6e2U, 0xfc76cb02f2edfad9U, 0xffff1200010cf429U,
  0xdd0ef5ed1e0f0d06U, 0xd71efa6dfd02fea9U, 0x3ec23f3c0f5fb01U, 0xa0081f8ff0ffd02U,
  0xf2f601ebedff2307U, 0xeaecf32ed402c717U, 0x4f4d1b9c4383de0U, 0x1efce40c02e6edf9U,
  0xe220f4041e16f9e7U, 0x11f417ba0fefff09U, 0x3f7e3e4eae1fc38U, 0xe71d0af8f619e70cU,
  0xd0370d1b08fd3db4U, 0xa3f217f9cfc4d436U, 0x6fa1327e7ffeaf2U, 0x18e10f03f1e700f8U,
  0x10817f2d6f9d112U, 0xe116e10cfc2d0942U, 0xfddf3c012f607e9U, 0xe121c14c210031U,
  0xff11fc2afb40f881U, 0xcf080322df02fd0fU, 0xf804bed9f4fbddf0U, 0xfafdbee32c0fe400U,
  0x3f42115cced0b06U, 0xfea9736eb0c45c2U, 0xbedf56091804da03U, 0x1811e7e0c0ef0defU,
  0xe01bfe8020444e2U, 0xbdafec2e82ee609U, 0xf7b2f90dfcf70cd2U, 0xce31fecbf44f4033U,
  0xf229020e1afd0ecdU, 0xc918decbf04d81edU, 0xbe326ec3ff9ccd4U, 0x45c0cf3e9f81fU,
  0xd027fc3ab50d2d73U, 0xdbfcf5260203fdeeU, 0xe6a5cbf02371ce2U, 0x42ef0103db11013eU,
  0x1613180509eb0011U, 0xf40a0052f9f537f1U, 0xdec13123206132bU, 0xe6f7f12d21eb0e0dU,
  0x13102e8fcf00f12U, 0xcf1191504080034U, 0xdff2715f810f806U, 0xe906fef40bd90611U,
  0x1f00050e0ff415acU, 0x23e3168c071a0a22U, 0x1df0e60d1a05061cU, 0x1df026ddd51ae91cU,
  0x1212f5810d1c51d9U, 0xf30c0e34250206daU, 0xebf0ffe8150eeda5U, 0xf92ce413f6d50ef4U,
  0x18e8e81ffa0d06ecU, 0x355e8f3b7f9fa3bU, 0x1bf5fde8fd03efdaU, 0xf91d2a0211010e29U,
  0xf4f6ec00fba00215U, 0xf7fff1d406fd14dfU, 0x11011eecf5f107fdU, 0xe1ede40a030e1609U,
  0xd0ef812d3df2e306U, 0xfc1df330f6f71305U, 0xf6fa1be7fef40602U, 0xf9550c19fbed2cf2U,
  0x130543faef0fe8caU, 0xf030d50bd9b1f01cU, 0xf9fbe907feb84ffdU, 0xfa0006fccbee091eU,
  0xfcf0fcf502fe02U, 0xfcfff0010801430fU, 0x9067ffef8000304U, 0xa08fd0606fff900U,
  0xf2f8f9060401f215U, 0xfe0701fe00fbf408U, 0xff0bbefeff0001fbU, 0xf412050103eaebfcU,
  0xfc03f6f90908ff0bU, 0xf60a01f7fdeafcf7U, 0xf81814ff1504f5faU, 0xf506050001fe0bf6U,
  0xefdf803db0114d4U, 0xf6fdf51cff140dU, 0xf2e7d05f02ff10fdU, 0xe10206fffc140df1U,
  0xaebe5fdcd12240cU, 0x3fcfcd118fff0f6U, 0x1423f52f03191e7fU, 0x2e40d0b140afb29U,
  0x19230cf5d60af036U, 0x5a0c1b17361008ceU, 0xf945fb3301fc2f09U, 0xe8ed03011e041eefU,
  0xca05fdb813fff4acU, 0x10fffcebfedc111cU, 0x3dec2634eafffcfaU, 0x1926f21a0529fc0eU,
  0x540711bae716efe7U, 0xc1b4a25e503e3d9U, 0x6cf0b374112e61fU, 0xbd481d03c22302fdU,
  0x11f811ff471e0321U, 0xf70af5c4350ede09U, 0x472f1523ea1732f8U, 0xfe16393937f806fcU,
  0xefd86a1be4e8b1f9U, 0x174efa1330cd1edfU, 0xde9fe010a0ae248U, 0xc1405431cde0cb1U,
  0xf307e9e61329db57U, 0x4216164e25f61440U, 0x243b15f413200731U, 0xda1e8b1fe7e804c2U,
  0xf9f81e1415f481f5U, 0x28c9f1eef92f0107U, 0xee081cfd01de2404U, 0xfd100209d6faeeb8U,
  0x10d7010007f1ed0aU, 0xd112a2af7099501U, 0xecf97f0408e9090dU, 0x31d8fc08f305def7U,
  0xea19f2b1f208e303U, 0x206040c0311f3fbU, 0xfcdd75fb0b0402fbU, 0x32ddf7fdf7f904faU,
  0x1100eaf50304d9U, 0x19ed124bf8f8fbe9U, 0x101032fbfa01d80bU, 0xbdbebe9ba0608f7U,
  0xfbfa0a386011dcc7U, 0x10ca1efbd80054f1U, 0x5fdf31403f6f6e7U, 0x4010209faf40f00U,
  0xdaedee07f5dcf6fdU, 0xf8eef5110109fc17U, 0xfefcfaef08f5f6ffU, 0x30701f7f6eff522U,
  0x711e7fbf607fd03U, 0xe4f609f2010d0103U, 0x3fbf8fffc9f0220U, 0xe02fff300fe0dfbU,
  0xfdd8037fe8fb10e4U, 0x8f7fc010104fafaU, 0x8fa0111fc02090eU, 0xf1f8f5fefffb07fdU,
  0xd909f90df70507f5U, 0x700f3f0f3fd0217U, 0xd0aee05010df003U, 0x50409f4f1050202U,
  0xfc0afdf905f3fbd5U, 0xfe8efcf9f4f0fffeU, 0x80301ecf7080cfbU, 0xfe0025fffccbfa01U,
  0xa00fbf2f911f813U, 0xfaf20704ff010106U, 0xb03f2f3f2030401U, 0x311010412fa0209U,
  0xfffafbe7eefae828U, 0x4f805f6edfa00f8U, 0xfaff0d1a0b19f60cU, 0xf4f0f805fe060502U,
  0xf80ff6ebfeef0c03U, 0x615fc02f481ee19U, 0xfdf01100c500060bU, 0xf0080514fd81d4fbU,
  0xcfa0b00f909e8a3U, 0xfefaffed1107040bU, 0x608fbeffd9e0d15U, 0xa0810ccf8f60702U,
  0x5f10810fc01ffebU, 0x80fdcffcb06f509U, 0xfcf60a019b080508U, 0x8049a098b12fffcU,
  0xfd02f8bcf2f41dU, 0xf6fdf11f060c06fcU, 0x50af3fa06a20815U, 0xf2d3f0f7e905fd00U,
  0x2010a2efcfb1111U, 0x12f4fefe09050519U, 0x2418f5e82d0f0729U, 0xe47e4d52d2bfd4aU,
  0x2be1efe5110021f7U, 0xd23f615f91926f2U, 0x2caecbe2fc14e818U, 0xf30d0d0ad0fe1319U,
  0xea3ab9f715e910e2U, 0x290d29e601e3e003U, 0xffdfdd131fda07eaU, 0xf3d8170c040b1706U,
  0x3d19de2118cf0effU, 0x24eeef030d06077fU, 0xa0940260022e425U, 0xe8df0c61ecdff808U,
  0x32d62be10b03e956U, 0x42f5befbfde6dbf7U, 0x1609f2ff04ebe8fcU, 0xfaf700f3f90e0cf3U,
  0xcff0fd0eebffee08U, 0xf20c0a080a04f5f3U, 0x8fa0ae2e8080109U, 0xfc0900faf72000f8U,
  0xbe1fb022f1704feU, 0xe6f8f017f4f507feU, 0x3f3f6ee09f0ea05U, 0x30ff3f600e4fd02U,
  0xafd7f0803c7dbU, 0xf6f002ebf9fefde2U, 0xf80700eb0207f9fbU, 0xf10200fefa10efU,
  0x1f3f3daf8f9fbfdU, 0x1f30cfce509f2efU, 0xff00e3fe070501faU, 0x107050cfd05ff02U,
  0x1fd09fbfe0102fcU, 0xfdf101edff06faf4U, 0x7ff01020ff8f1ffU, 0xfefdfb05fd2107fdU,
  0xfcea03fefc14f20aU, 0xf505f804fefc070aU, 0xf8fdfa050403f5feU, 0x4ff04fffd120401U,
  0x4505fefc080744f4U, 0xfff7f4fdfdfdf7faU, 0x700049100fefdfcU, 0xef7ff0c02fb0300U,
  0x17ffa0600f8fdfdU, 0x60dfef9f6fd01fcU, 0x3fcee01fff12bfcU, 0xebf20600db1007bdU,
  0x29ffff220de903U, 0x4fe33e400068a31U, 0x3057f0bfa0ffcf2U, 0x2080408f70b150bU,
  0xcf9f0de00061702U, 0xe80e061100e90a08U, 0xff184a08fbfe04ffU, 0x2800010403f4e809U,
  0xfc0000fcfb04fd0bU, 0x90f07d1fef802f5U, 0xfc01d6faeff7d5d5U, 0x405fe182805eef6U,
  0xe6ed00fa47f42dffU, 0x111ee01fa0230f8U, 0xe10007110c22157fU, 0x23e225b9cbb1feedU,
  0xc8161d5002b95c0fU, 0xf923130df617f403U, 0x26b5c90ef1e9f70bU, 0x1c60f3b55fa2707U,
  0xf106f7111b44ed0cU, 0xeb02031acff7e3fdU, 0x10030e075739050cU, 0x5f519c5fce7b905U,
  0xc7e37518f33df316U, 0xd60a1be704d5291dU, 0xdf06221f18f412d4U, 0x191dee2be9edee0bU,
  0xba0fc2eceff40346U, 0x24d9fb18f7d60e05U, 0x4fe0002fdfefe02U, 0x8f9fe12fafb04fbU,
  0x10c00040205f61dU, 0x4f7fa0416fff700U, 0xf7fb05fe090e0dfeU, 0x3fcfdf9fbf3fafbU,
  0x2e608fafa100bf3U, 0xfffdf60406f7fcfdU, 0x4fafc0ff9fb0001U, 0xfd0303fdfaff0808U,
  0x7f0211dc100415fcU, 0x5f9000b0303ff00U, 0xfdf407ce0a1d0704U, 0xebcbe6060004080cU,
  0xf80b0703fb050dfcU, 0xfefa01fd0c01fe27U, 0x8f8b92105cae7f9U, 0x420d12e8180d04bfU,
  0xf4b8bb07132ff407U, 0x1efa1d140405f3f1U, 0x2f8221d0e1df8ddU, 0x172c1917f30f12feU,
  0x2b0efaff03e58130U, 0xbc161909f307ecceU, 0xf09feba516fe23f8U, 0x190015080899eea8U,
  0xe020e53202f310ebU, 0xec4200fb2a930051U, 0x24e3a48c126f610U, 0x4f09be3d1fd3f0d3U,
  0xecf90236bbc0e010U, 0xe12605dbdaecdd21U, 0xa12e781ef2cfa05U, 0xf6f0f536e3ff0c20U,
  0x50e19fde8f0faf7U, 0xed0a0304f1ffebf8U, 0xe7fa010616fe0a19U, 0x10cf8fb01f8fc0fU,
  0x1100f604ebfa2cdcU, 0x14eef208fc08fcfcU, 0x1611f91a02fd00f9U, 0xf3fbfaf3f310150dU,
  0xde04fdf7fc0c08f3U, 0xfa0904a7062806e7U, 0xeb0afb0d1bfc1004U, 0xef00ba18d5080200U,
  0xdf601ba071609d0U, 0xf7d8202f10fdfaf7U, 0xffc80ad1f713c633U, 0x7f11fc67e5f400e6U,
  0xe7161507ac09e4ecU, 0xcfa0ae11ef8f10fU, 0xe50117ffe3fd1c1cU, 0xe0fcf3070af56ff1U,
  0x349615d8983228f0U, 0xff11e9eada13f018U, 0xeb6aec1ae1fd1a0fU, 0xf300fdfee6560d15U,
  0xc8efbae40df60cecU, 0x221503ccec1a00bfU, 0xe05263629f80af7U, 0xc10cbc2cdf11e41cU,
  0x2e1ddef5ebf6070eU, 0x8492cf30bf0f303U, 0x110d091f39f4051bU, 0x2cd1bd7cc2827ecU,
  0x1dfbce182615123cU, 0x122202f7e7e307ecU, 0xa13f132fd424b1dU, 0x1401fb3c26f821f7U,
  0x1724face1918ae04U, 0x81ed230f27aefed7U, 0xdd2fbc62b0aeae1U, 0xe40d07f81cc5f7e2U,
  0xed5d09d534f00b2dU, 0x320b1625eddef07dU, 0xf12e620f0291adcU, 0x22501efeb2306d5U,
  0x8eafaece50e1520U, 0xe30303170313e7fbU, 0x8eceedf0dbd06faU, 0xf1fbf112c3f007c7U,
  0xf724eb020fffeb01U, 0xff0aeefffdd214U, 0xfafb4bfbfe0600f7U, 0xfc00fafce003ff05U,
  0xef4f5e6f614fcffU, 0x6020efd0cfe0507U, 0xd92a01fa080501U, 0x1c0605f209fa11ecU,
  0xf5fffde8ecee0604U, 0x16f61ef50205e621U, 0x9ff51f54dfeed03U, 0xe8f9220f4809020dU,
  0xedf40e201b00e8d2U, 0xbfbf5efef077f01U, 0xfc1225f6ea2427fbU, 0x265900303ffdcb14U,
  0x70034f82f130adbU, 0xfbfa170b0ef4e0ebU, 0xffd22d912f5e106U, 0xd31114f302f01409U,
  0xfbe8691ce12a112dU, 0xfd10e623ffe4f719U, 0xe7fea0cdefd0f09U, 0x617f209eb12210eU,
  0xf41cf2e802f0f7ffU, 0xeeedf72cf6d13338U, 0x18130e02cced1eb9U, 0xf2f883ecff09d414U,
  0xc03f0a72117df07U, 0x151c00181dffed15U, 0xbe181f310e01e0fU, 0xf7defef2fb09fedaU,
  0xf71bde09cd020a1bU, 0x1b1bf5c0f00c16f1U, 0xf60b1415d0060c0eU, 0x19d5f60de1f3f4e6U,
  0x2e0ced03caf7d405U, 0x15fe0e170026031bU, 0xe0f25ec1101150fU, 0xefc11f219c42c14U,
  0xd51526e9f8fcf0e0U, 0x30160feec0ce0U, 0x12c9fe061b1e1108U, 0xb9f3b7fce7f70315U,
  0xfcf10248fcf538d7U, 0x819fef2cc061709U, 0x193f0afb10072d20U, 0x33d40dc41af40bf6U,
  0xadfe01dce0c1ef8U, 0x2e0a0b09fe11dc09U, 0xf722c2f6abeff313U, 0xec2b15effbf54d05U,
  0xf6950343dafcfd12U, 0x10071d0209f9f744U, 0x336ec62eff9da09U, 0x232808fa14d216f4U,
  0xfff2f9ee170017e7U, 0xeac4f29af1fa071eU, 0xf0b9fcf309f90600U, 0xf6e6ddf9defaa310U,
  0xee21f697f419d581U, 0x1920f10eec06f1f5U, 0xfae4f011ebeeeff9U, 0xfdfb15eb03fef2e9U,
  0xfeee04f9db07fd03U, 0xfd0bf50105f8f7U, 0x90af8fff8fa01eeU, 0xfffbfe0b160f0c00U,
  0xea11e3f515fffee2U, 0xf404f601ec3009c4U, 0x9eafd0efffc0206U, 0xf116ff08f81c0bfbU,
  0x204f71201f3f60dU, 0xc0f0abb003507b5U, 0xe803f806f4fff9f3U, 0x14062313e9ee0001U,
  0xfd0ef47fe7fbfa05U, 0xfa0e02eafa0406faU, 0xf1fc11fae81a2affU, 0xaf706140afa0a19U,
  0xf30003f3070123ffU, 0x30f50502000309f8U, 0xc040105f4f9fab4U, 0x1fb05fc08f00827U,
  0xebe902ede80900f3U, 0xe40c11fddcf8e6deU, 0xf9f0fe0ef6ff3003U, 0xfb05ff01fac20c02U,
  0x3201fcf105f50a08U, 0xf907f5fbfef516dbU, 0x7f00eff9f0080702U, 0xebe016f0f909200aU,
  0x42f806091e201613U, 0xf1f031f417000e11U, 0xbefe900f9112307U, 0x60af0f81b0bfce3U,
  0x2f5f800e604f204U, 0xe07f000fa00f328U, 0xffed0c0904fdff03U, 0xeeffa07e9010203U,
  0xfb28effe03020be0U, 0x3fe0010060efcf8U, 0xff200314fdfff7fcU, 0xef00ff06fb17f8U,
  0xa08011d0ef7000bU, 0x50307b5ff0c02d0U, 0x6edf501d107e4f2U, 0xe06e3fde00fff16U,
  0xc49f8097f05U, 0x4fcfd001101f0fbU, 0x40fbbf9fffeecf6U, 0xfdfbfafdf6fd00fdU,
  0x2f709f813f80119U, 0xfadd00ffeff8f2fcU, 0xa00040ce2fcd704U, 0x30d25f1f9ce04f8U,
  0xa01fcff09ef0dU, 0xe9f4f815fffe0002U, 0x504fedef401f9ffU, 0xfe05fef9f305fd14U,
  0xfbfd09ecf0f9ed2bU, 0xf6e8fef7e7ebfcdcU, 0x701007f00f0fbfbU, 0xf8f3fd02fd130bf9U,
  0xf022ecd2fe0411edU, 0xfa15f400cb94f937U, 0xfff5030f0a040007U, 0xf404fc16e90a0427U,
  0xfeedf5000005f7fdU, 0xfaf9dd13f60025e0U, 0xebefdf0e08f6020cU, 0xf8fafb0200fee510U,
  0x81f1ee0ffd04f0f5U, 0xf0fb05f9fe251433U, 0x41a07090808fdU, 0xfd0802fd0610f9f4U,
  0xefc0812060c0cebU, 0xfee2f1f6fefaebfdU, 0xfaf100fffc02e404U, 0xfcf71a16ea0f0dfbU,
  0x2ea16df1bf4fdfcU, 0x9dc05e10104fbf5U, 0x1a9fee3b14bfb8fdU, 0x2b29e508e1e9f4e7U,
  0xfe03c00ff50312f6U, 0x608fef8f9ebcf12U, 0xf80825fda7e1f13dU, 0xeddbf9ebdef71af0U,
  0xc97ff3fed4f8fa00U, 0x11f3ed040dd00e59U, 0xbdcde5cf9f61009U, 0xfefcf90301ceecfaU,
  0x2c05fc370b1f002cU, 0xeefee704efecd9e3U, 0x2b10f3fd4804fae8U, 0xc900fc07130aede6U,
  0x3cfb16f902d8cb19U, 0xb253301ea0ecffaU, 0x617faf907f3edfaU, 0x230cf6e9170903f2U,
  0xfdfc0804fb0b17f7U, 0xfd0c0409f50df703U, 0xfc09ed0512f3fdU, 0x1f9fbfdfb07f900U,
  0xf23bec11f49aef10U, 0xf5011907fff00414U, 0xe2f1f8001138e202U, 0x13080ce9fb09fd0cU,
  0x6f91181f21403bdU, 0xce02c5d9f3f4eeU, 0xae2f9effbf20df4U, 0xfbf210fb08fbf1f9U,
  0x5e4fc01f8040fdbU, 0x615fefb00fcf502U, 0xfd01eefafd0500f7U, 0xfa030af7ecf500f4U,
  0xa0af51406031ae2U, 0xf8a2ef074602f6e8U, 0xf5fdfdf9ff0d03f5U, 0xfb01a0060a0a00fcU,
  0xb01defcc3fb17U, 0xf605f4f4f2000908U, 0x7fd07f7edecfc08U, 0xf2f9fffb0aefee06U,
  0xa02fb0ff91ed307U, 0xfc03faf9f6f3f8edU, 0xfc0003fb031d03f4U, 0x5cf0612f7fa0205U,
  0xf30403f807ee0cf4U, 0xb08f903f67f0212U, 0x805f4fb1424f534U, 0x6edf3ee2901f1eaU,
  0x2eff900dfff1710U, 0x1206010eece010e8U, 0xf2ee0d02011c0208U, 0x4f6e80dedfd0808U,
  0xfe08bd09fef81bddU, 0xf4dc0ada1d1b0e03U, 0x93afc100701f4ddU, 0xe3f911e30d0eef15U,
  0xeffe00f5180702fcU, 0xd9f5089ff502e6e5U, 0xffdc0100d719f6f1U, 0x230ee503df170313U,
  0x14130f2fdd197f19U, 0xd9e211f709dfed15U, 0x3dbbdf702e6dfdaU, 0xc51dff2c151c21abU,
  0xeef6220cd1f92601U, 0x15f805b7200ed9f0U, 0x81f03d4e117bda5U, 0xffe1f6fbd8161b29U,
  0x9d6914fe02fbd8e6U, 0xfc07261deeaf26deU, 0xc8f8e9d232fffb07U, 0xf73d100e0335fd14U,
  0xcf015fff1f3bd38U, 0xca17cb2b10f1eaf7U, 0xe62c040704fa01f9U, 0xe1f9c941298707e2U,
  0x81ea1840a7c7ed0dU, 0x2d1482d9cde0e401U, 0xf6c1d32efe03f7ffU, 0x12fb030efef2f8f7U,
  0xc04f801fb10faU, 0xf9fdf60cf8f6f6fdU, 0xff0b15047bf803e1U, 0xfb03fe0600f70a0fU,
  0xecf9f4fcefeffdedU, 0xefc04fe04edf9f1U, 0xf806f633f606810eU, 0xfef8feffff0ffdfcU,
  0xe2fd060efe0a170bU, 0x1bf7fc0e12fc0bU, 0x704f3f00afdfb00U, 0xe60b03f608fcfe05U,
  0xf6f5ffdb0106f607U, 0x10bfd07dc01f8ffU, 0xd343e22126c3f40aU, 0xdf2de4d60cfbf7deU,
  0x2e1309df3cfbd3e2U, 0xf81222f817e00afaU, 0xe8edf209ee21f1faU, 0xfe03f6f1e80038d3U,
  0xd9412213d01c2f1aU, 0x13fb0cea2d19212eU, 0xc7b4ff0ddc0af80cU, 0x291decee0b3c100fU,
  0x2130d5f716d115ebU, 0xf20def81f60ce300U, 0xe313ff1314f70c0cU, 0x1419083a2b2accf4U,
  0xf2d448ebfaf9091fU, 0xfb4cdd0adffcf0e6U, 0x391ce01929f9ef33U, 0xc5dffe15f58a571fU,
  0x30f6ef39062f051aU, 0x1ccb12d515feef1eU, 0x203525b6fbe44808U, 0x617fcf85a4cf7eeU,
  0x451008de002834U, 0xdf17eefec122fe1fU, 0x162fee12d2f4c905U, 0xea262006e8ef14feU,
  0x33f17f8890280214U, 0x2e150bd621e20514U, 0xf43a1c3a0ccbf0e0U, 0xc909d831e23cfef8U,
  0xe1f906e416e6f74aU, 0x156d1025fa0000f0U, 0xf4d116e71105f3fdU, 0x1a12f9fa01fff208U,
  0x1ed02f3eaf4f4f5U, 0xfef613f501ffeffeU, 0xf5f4f2230af8dbU, 0x1113fa000bfadff6U,
  0x10160e090f11dbdaU, 0xdbfde700fb6bf911U, 0xb0a05fffe01d8fdU, 0x2fe0205f20fe3d9U,
  0x5010feaf001f723U, 0x1a19167ff1fbf0f1U, 0xfb14e2db1df7ea0bU, 0xd6f9080bc7f11e08U,
  0xf2f1fa3716b913e0U, 0x13f2fcc00ffd00faU, 0xf10fe917e2d4d1f3U, 0x3f60fdc1b17fd1dU,
  0xdf1cf7ce070810U, 0x4fd01f304fe0c14U, 0x70b040b0ceef10fU, 0xf0ec012200f83c0cU,
  0xd949f2ebff1010f3U, 0x16f9180bfd61fcb2U, 0xedef0d1813020f0aU, 0xf70413f20dfe14ffU,
  0x20e011d0bf12eecU, 0xeb00f834004905e6U, 0xfff7f51d00080ff7U, 0xeae7fba6fce9dbU,
  0xf210d7e61dc2e481U, 0xf670f9b7d703f6f1U, 0xe74ddccfe3073717U, 0xf5d3dad05ae6ff09U,
  0xb0bd3fce0ddf6c9U, 0x16f10e41c8fceef9U, 0xd8e629ef32e6e922U, 0xf3f1dff2d4020907U,
  0xfa26e2b50feb2cbbU, 0xe3da0c0ededeede9U, 0xf60115f5d11525e2U, 0xfebd4ddcd7f1538U,
  0xff0b070deeec28d3U, 0xfcf9f9eff339d74fU, 0xf9060b1da5d1ffccU, 0x5f95afe160fb5ebU,
  0x1d1fced72b08f36fU, 0xcd33e608f9d5f3e1U, 0xd4d01322d6d5f2U, 0xff04ea19060f4bffU,
  0xf3f928f1311216f3U, 0xf2f413b10417fb29U, 0x7e4fcf0fd1702U, 0xed130f1218faf503U,
  0x9044bfd11f217cfU, 0xfd13f72f22e1f2f4U, 0x9e9ece0deffdc08U, 0x1803fc1e1ad4f6d3U,
  0x51011290d32e746U, 0xcde17e423f51fffU, 0xc7032bf8fbea0dcfU, 0xde41fb7fe7cb2fdaU,
  0xee0ffef6f700d214U, 0x190fdcce310eb10U, 0xfce9e50902ecf902U, 0x12fc0afdf60003eeU,
  0x1505210bf3e8f303U, 0x113ef6a04e7fc04U, 0xfbf0fd17deec060aU, 0xf918070ef8e114f8U,
  0x740f9e7d7ebf412U, 0xfefb0df900fdd8U, 0x3080006fbea2c00U, 0xf2fff6fcfbe70202U,
  0x13090b81d2f7f715U, 0xfa15fcff01e8011aU, 0xf5f00cdced0bf305U, 0xfd06e50400ff01ffU,
  0x7faf4d9f5fffa1bU, 0xf81e04e8e50706ebU, 0xcdbfe20f6eb0e48U, 0x9083116f3f4f91bU,
  0xfdfa07092005ebU, 0xe9f607f1307ff811U, 0x181ef7f8ecfff1eaU, 0xe60934ee0dfbf503U,
  0xe8e037342626f113U, 0xe29ee33f11a00fcU, 0xfdf3f233030ff8ffU, 0x2419f014f4f30ce9U,
  0xe1ff0de6fa07020aU, 0xf8fdf1f419dd0702U, 0xf525eaf716f9fd14U, 0xa07e2e2fef61dd4U,
  0xd712fcf41ce9cbf9U, 0x26f7f2e9e11a0cf9U, 0xf9fc0c0af032cdfdU, 0x9e1251cc6e81c2eU,
  0xfe0618fa3f280400U, 0x6fd19ec26343228U, 0x2a3c07f0edee0df0U, 0xee292c110306ed10U,
  0x508f222000ce728U, 0x1837ef2101061af0U, 0x1381f5d9fdffe433U, 0x2004f824d7cc0c06U,
  0x2a20de26eff906f4U, 0xa18fecc23e42f73U, 0x1870e4fa6af429f3U, 0xdbf0e802fef0e124U,
  0x3f9f41e10f1ab1bU, 0x2f0203f7f7042f0eU, 0x2be40dedf2e9feU, 0xebff012debfef013U,
  0xf624faf9130c02f4U, 0xdfdf50b0f0809f4U, 0xc062bf018f9eef7U, 0xfc1107ff0af4d5U,
  0xe655f1e80afb32bfU, 0xe706fe160b0ef0c7U, 0xcef0faf1000240dU, 0xfcfc0a1a01630233U,
  0x7080b32f9f500feU, 0x50feb7b0413fb03U, 0x1b0f0902f20cfdfcU, 0xe4f406f63f222107U,
  0xfbfee9190fd6117fU, 0xf3e2f2040dfef5fcU, 0xfa0935d7f80d0f02U, 0x1b0a00f70907eb32U,
  0xef0e07ec3700e6ecU, 0xf504131309f0fcf7U, 0x130222e104efe0f9U, 0xe9ef02ef00080218U,
  0x14fe3a1d1f0503f7U, 0xf8fcf9d6f2ee0533U, 0xc2902f50aff09feU, 0xedfc1506f4e7fa0bU,
  0x607080cefec0dedU, 0xf604d3510af80e2dU, 0xff1f3e1bf3f30b3aU, 0xfbed2981f1fec600U,
  0xef1a00fffdbf8U, 0xf0410f173009c301U, 0xe706e6edf60cf9b2U, 0xefee00120110fb01U,
  0xf808f51aee230a0eU, 0xfbedf2faef280230U, 0x5ebf8fc0a06ffffU, 0xbfd1d0001f310d9U,
  0xa1417fef6cc0f08U, 0xf2ed0dc4fff406f8U, 0x9f5fdf8157f0808U, 0xf103f70e02f30b00U,
  0x15caefe8fe04f8f5U, 0xf91af7f988fd09f6U, 0xf7ebeef4e80a0bf1U, 0x40a02f307fe0105U,
  0x18fffcf2fdf9fff7U, 0x20dff0ef7b906f5U, 0x725441324810a14U, 0xf42600dee4e351d9U,
  0xd0ae00a0209fe0bU, 0xc0479fdf0f20293U, 0xff095402e3db01edU, 0x5d6804149ff9e7faU,
  0xf1e589dfefefebf4U, 0xf8ebfc0e15fded08U, 0x5c402e1e8f608efU, 0x14f20cf7e1f3f009U,
  0xfefe06050cfb080eU, 0xea0722ecf8073c18U, 0x5f45afc4008f900U, 0xe6ee26705f071ef9U,
  0x5f9f1e22822ddd1U, 0xf0ccf201b70113faU, 0xf0d8fc0c2e95f8d1U, 0xe72111100836b7bcU,
  0x72111ebb31a0be2U, 0xd511ebd9f116dcc5U, 0x1c3fb8f80e37d1bcU, 0x10e518ffd5f1e2f6U,
  0xf50920eebf1518c7U, 0x1c0530014deaff2dU, 0xe2d50004ee03b515U, 0x4a0c08001d39fdf6U,
  0x9152cb947abcbefU, 0x2713021bf811d4d6U, 0x10e2e681fd08dd3aU, 0xdc02cfed20bed6d7U,
  0xe62d3e3c14e8b7f7U, 0x180098ebda15af1cU, 0x6eee4fd07fefdf5U, 0x7fffafa14d1f0fdU,
  0x81181efc04e4edc6U, 0xe5f10df80c00e7ffU, 0x3011e3f1afe07cfU, 0xfffafef300f11af2U,
  0x235402f7000313f7U, 0xf617f517fcf9efU, 0x1df4eafef2ddfbf4U, 0xce6b3f6def3fb02U,
  0x2005ea1f20ef11e8U, 0xff0304f5f3fa07f5U, 0xeb241af8f4db0bfeU, 0xb140ff20605ff1dU,
  0xe2e408e3fd01fef2U, 0xff7e42afe06fbf4U, 0x1af0fbfefcf4f102U, 0xf50201ff09070e02U,
  0xc407f81f11fd21dfU, 0x7f4fef5fffcf0f7U, 0xd101a1e11f3e9ecU, 0x1207ff05041ee500U,
  0xf3eafd04fc16faeeU, 0xc04140fd4f4f9f8U, 0xfdfd02fafa02fd02U, 0xfb0c8107020005ffU,
  0xfbffb5137406f107U, 0xff0e08170607fbf9U, 0x9f60208151704fcU, 0xf8f90eed0dfe1b07U,
  0xfafdff0006060806U, 0xf6f801f8f8fe0007U, 0x19dafff911c7bdd9U, 0xe4dc0b1fd90e0c0bU,
  0xc7ff2220dfd0b0dU, 0xfff9fafb07122fe4U, 0xfd40df10af7e8U, 0x907f0f6ffd9faU,
  0x1207f4020ffbfd11U, 0xe50df714211329ceU, 0xe2cf33c908fe08ffU, 0xf3230e0009ebfffeU,
  0xdbf9170e14e6ed0eU, 0xfafd0ce80905f631U, 0xf94dfdfd5a0ff307U, 0xdde86f2454f80ee8U,
  0xf8fcea5a0802eccfU, 0x1af201e6df08021dU, 0x15e6f3151917e5faU, 0x411f09f7ed0cfdfdU,
  0xcde3e7f50ff1e918U, 0x1442e8f07fee0903U, 0x8062a10edb6fbe4U, 0x514cf0af8f8e913U,
  0xf6041103fad3ee0cU, 0x9ca2113fdf10fffU, 0x130707ff14f40404U, 0xa120d143cef04f9U,
  0xb8dfeffcf2efa4fdU, 0x11060319f7fe03e8U, 0xf72b0cdd08cd0a08U, 0xc9390408d9fc05f0U,
  0xfb2b0153f2da0015U, 0x2145ebfcf661fa13U, 0xfaf74bea0310f907U, 0x4110afdf604fde4U,
  0xf8f8020afe030b00U, 0xfdfe1802fefa3dedU, 0x102e403fbfd00faU, 0x3020100fcfaf703U,
  0x11003d8fdfef7f1U, 0xf1fc020c030bfc08U, 0x8f2e5fb08ff04feU, 0x36f90400fc000800U,
  0x6feff0d06fefff1U, 0xf4fbfb27fe0ee614U, 0xf9f9f6fe1303ecfcU, 0x1fff302f7fefd08U,
  0x4fbfe152aedf719U, 0x4ef0af98103fb00U, 0x6fb570a0dce4207U, 0x3701f8f9f7ded2U,
  0xfefeedf934ffe9f6U, 0xfb2aed070ed211U, 0x12fc33dff303e90cU, 0x1bee0c06f00ef9fcU,
  0xf9fd31f1fc071013U, 0xf60606fdf9c7f010U, 0x63adf05090af803U, 0x400bfff4f7def5f5U,
  0x90907111afaf8faU, 0xfe05fe58fade1703U, 0xfd1103f9e8fbee06U, 0xe4fdeccaf9e9ea2eU,
  0x5f2f4c17ff0f303U, 0x16e317078c062801U, 0x2d2f0138fd03f9e0U, 0xed314e0618e7c524U,
  0x15eaea06f8f606ffU, 0xedf5f903120df753U, 0x704f070e05eaf700U, 0xb9094ef236e50841U,
  0xf4bc355709f3fedcU, 0x51cf9e2e31a09d8U, 0x7200fa2a04edee49U, 0x40fdf851f8dd7ff5U,
  0xd9f2fde612f12207U, 0xf300e2c90b1b6508U, 0x1403bd16cf0f0f02U, 0x4ff708d5d911c3f0U,
  0x9b0cfcd34528ffe0U, 0x110e9702f20011f1U, 0xfb071f03fef516f7U, 0x2de6fc0d0d050fe2U,
  0x2060e09ee07fd04U, 0x606a5fef80406b2U, 0xf8f62cf4fe0a0dfbU, 0x1f3fe041404fa02U,
  0x84238e3fc140cffU, 0x801ffe8021ae8fbU, 0xfd07e3f4fb06f4f3U, 0x2edaf9fa07f65101U,
  0x80a00200a0c0d07U, 0xebfb07b6fa060104U, 0xf313eb0cd3077f4eU, 0xf717ee11edf5140aU,
  0x107051e020eea12U, 0x7ee1bffd204fe0eU, 0x1de4ecfff40be917U, 0x6090d11f9f7ff16U,
  0x7f031b05f906f50cU, 0x242e0ef80116feefU, 0x12feffb017f10e0dU, 0x151a06f1ffe2fbfdU,
  0xeff71a0ffdf4fe01U, 0xf61614300308f0e8U, 0x26fee908ef6419e5U, 0xffefb03fbf702f5U,
  0x1319e3f7e3ee0fc8U, 0x1ff03ffd6f2ed04U, 0xf0070af9f1fefe0fU, 0xf7f7f8020a04fdf0U,
  0xe700fe18e6f7f70aU, 0xb40e409ee121201U, 0x511e70f00d5a7f1U, 0x3f90411c30104faU,
  0x114e8091cff00fcU, 0xfefdf9fc060108efU, 0xfe05fe00fa08f7f4U, 0xf2050307ff020a03U,
  0xf703ddfcff08fd15U, 0xe103fc00021bffd4U, 0xf7d9f7f80203ff02U, 0x602090202f30a01U,
  0xf2fe040e06030bf1U, 0x509f6f0000bf156U, 0xfbfeef005c02ec05U, 0xf50428057ffb0a1fU,
  0xfd00faecf703f40eU, 0x309f4d9fb04ff0bU, 0xfbf7050d05070607U, 0xfff5d80cf201040dU,
  0x10706000da9f606U, 0x2fffcf7bc8cf613U, 0xcbdaf81111040d00U, 0xb019f0500fc08f1U,
  0xa020710f51005eeU, 0xffa30de607f90506U, 0xf5f6f800030006c3U, 0x6f0fcbb00090303U,
  0x6e8f80d0507f30fU, 0x3100b388100fbf3U, 0xfef1f6f20e050402U, 0xf4070d080a030300U,
  0xf9fe06020f0a03f2U, 0xebf7f50301fd020aU, 0x71ecf50deffc02f7U, 0x13ecff070efbfbfbU,
  0x9e8e67f100044f4U, 0x64ffffe1f5f5f8f7U, 0xc130e11f1e0fd17U, 0x303f50006f70011U,
  0xecfaf9f1f000ea10U, 0x9014bff040c14e4U, 0xfd04fd1dfd06e100U, 0xf50ffff8ffe4e4ecU,
  0x1ff00030f060e39U, 0xfe03fdef0208f5f8U, 0x8150218e0f80502U, 0xf4da1607faf9fff0U,
  0xeaf904e2e5e8ff0eU, 0xf521f9fde5fffcf9U, 0x5e58d1f0b9e1101U, 0xee0a0c00b90009e1U,
  0xdfaf4f6cf06050fU, 0xfd04f4eb0209c6f0U, 0x6002f0509fb010aU, 0x11090bfcf203eefdU,
  0x16e4dff1f006f3efU, 0x71900f90014efeaU, 0x7ec2bf000fafc00U, 0xe7ebf70801f705f9U,
  0x616fcf2f0fcf816U, 0x170f1aff041001cfU, 0xfe1bcee40bfefa13U, 0xfdf1061616f214d5U,
  0xdbf70dfad8fd24eeU, 0xbf3d9e97f010ffcU, 0xfbd6d859c2e2e7edU, 0x1bf0fc1cf8c2f903U,
  0xdd0cdc0df4faf281U, 0xf8d31cfbddea00f5U, 0xf0e510bce8bfcdccU, 0x4e7d9ebf82bebffU,
  0x354b1b02f9f90303U, 0xbfc50b15bc00fae9U, 0xf80201c8b7f14fd9U, 0x26faaae59e012403U,
  0x2603fc2eda11f8f0U, 0xdef00410d6b61705U, 0xe91903e8e3a621eeU, 0x13d4ece82afb0604U,
  0xefdc07eef7d00206U, 0xebe3e0dceaeb0611U, 0x15f900e768e0ce0bU, 0x262e4eddebdc303dU,
  0xf5189d0ae5f90e20U, 0xde15f3f0fdd232e3U, 0x3e27fc4dd0247f15U, 0xfc43123060f0fffaU,
  0x3b024533c9eb2319U, 0x3c10ee3347d41442U, 0x28f82c2ec30ae72cU, 0x142acdeb0adc0afcU,
  0xf0e909f0e33ec9e8U, 0x74f774edf8ee430bU, 0x22f6dd131c010421U, 0xe019d1df95282206U,
  0x15c226da27fe01fbU, 0x3cce2436ed232e47U, 0x7311415081902fbU, 0xea0afee8e9fe0608U,
  0x6f3081148f40e03U, 0xff02f200fff6ddffU, 0xe05030d06f4fb07U, 0x12f1fcfc0104170bU,
  0xd90eeafdfb3744U, 0xf2fb02fa07fafc1eU, 0x2f6e50f08070904U, 0xfbee0afcff0efb0aU,
  0x202f2ff010a0c11U, 0x50e0a21fffe0853U, 0xc0c02f9eb03f810U, 0x4e91411faeedbf5U,
  0x207f68108faebfcU, 0x2c0b0afc030a03U, 0xed2616cff2d72e00U, 0xaf70ede6cc41e6bU,
  0x1325edea3ce2e8eeU, 0xf010fd3504e208ffU, 0x1a17bc292ae21730U, 0xbe2faf413f70ef5U,
  0x2acb3304c203dc3dU, 0xda00e717d6d9cfe8U, 0xa38fa34f9091809U, 0x7f0fdf7e4301a1aU,
  0xe2d8e3e9fd040be1U, 0xebf7f93205113249U, 0xbde551313f0fcebU, 0xc3fa2e7f3b1b19ddU,
  0x2918f7ce5d1babceU, 0xf5365221e8050004U, 0xc9cb2ef209c61f73U, 0x12c5fa1e153810f4U,
  0x22fc051cf0e01c16U, 0x13e232fd2f31dfecU, 0xfec906eb0bf706d7U, 0x370fc1e4f5dceaU,
  0xf8d5db16f6540714U, 0xfde1c42d231714f5U, 0xdb1c3332ca29f6e1U, 0xbe4f7de300ca4e9U,
  0x180481bf08ebe3cdU, 0xb5fcccdef5171825U, 0x14fce4d204ffe2f4U, 0xe0edd50ffe1843f8U,
  0x40c5c2116ff1830U, 0x2b11060706ec0c02U, 0xfb1ccd281ddeaf03U, 0x6505f219f4e3f20aU,
  0xeb000b08e70517faU, 0xc2e2fef00fe2f3fdU, 0xe707fd08ede51218U, 0x3edf2f3e3fe7f03U,
  0x29d9f226d71e5721U, 0xc0ee00f0f92802feU, 0xff280408bd0215efU, 0x1fbf1dfd52a00f5U,
  0x40f3dedaf80df717U, 0xe3010a0cf4d8eddcU, 0x1f0a10e70adf01fdU, 0x2d0abcd000351f12U,
  0x1ae31e0805222ae0U, 0xfabd1508ea000a0aU, 0x72dc4ef091bfd08U, 0x41fcfdf2d7070710U,
  0x3534c11f1ff01f4U, 0xe1120912f212fd0cU, 0xf60f04052e12f4f6U, 0xf102010b0c061314U,
  0xfa0a04fde9117f5dU, 0x78faef080e58e00bU, 0xf5e50eebf5fb0a22U, 0xfbdbf9030b2af864U,
  0xf5020331090508bfU, 0xf9d2f850ecd80b0dU, 0xf8c60206f412e6f0U, 0xfb09d5e5f705c303U,
  0xfb24e3451009e91bU, 0xfc15fd3ef203eb00U, 0xfa09ec0509fcf9ffU, 0xf6f8fa05f70bf704U,
  0xfb0c0303090cf70cU, 0x600f4eb0afef90fU, 0x8feff01ff1bf6fbU, 0xfef40bfbf9500b0aU,
